{
  "version": "1.0",
  "truncation": null,
  "padding": null,
  "added_tokens": [
    {
      "id": 0,
      "content": "<pad>",
      "single_word": false,
      "lstrip": false,
      "rstrip": false,
      "normalized": false,
      "special": true
    },
    {
      "id": 1,
      "content": "<s>",
      "single_word": false,
      "lstrip": false,
      "rstrip": false,
      "normalized": false,
      "special": true
    },
    {
      "id": 2,
      "content": "</s>",
      "single_word": false,
      "lstrip": false,
      "rstrip": false,
      "normalized": false,
      "special": true
    },
    {
      "id": 3,
      "content": "<unk>",
      "single_word": false,
      "lstrip": false,
      "rstrip": false,
      "normalized": false,
      "special": true
    },
    {
      "id": 4,
      "content": "<mask>",
      "single_word": false,
      "lstrip": false,
      "rstrip": false,
      "normalized": false,
      "special": true
    }
  ],
  "normalizer": null,
  "pre_tokenizer": {
    "type": "ByteLevel",
    "add_prefix_space": false,
    "trim_offsets": true,
    "use_regex": true
  },
  "post_processor": null,
  "decoder": null,
  "model": {
    "type": "BPE",
    "dropout": null,
    "unk_token": null,
    "continuing_subword_prefix": null,
    "end_of_word_suffix": null,
    "fuse_unk": false,
    "byte_fallback": false,
    "ignore_merges": false,
    "vocab": {
      "<pad>": 0,
      "<s>": 1,
      "</s>": 2,
      "<unk>": 3,
      "<mask>": 4,
      "!": 5,
      "\"": 6,
      "#": 7,
      "$": 8,
      "%": 9,
      "&": 10,
      "'": 11,
      "(": 12,
      ")": 13,
      "*": 14,
      "+": 15,
      ",": 16,
      "-": 17,
      ".": 18,
      "/": 19,
      "0": 20,
      "1": 21,
      "2": 22,
      "3": 23,
      "4": 24,
      "5": 25,
      "6": 26,
      "7": 27,
      "8": 28,
      "9": 29,
      ":": 30,
      ";": 31,
      "=": 32,
      "?": 33,
      "@": 34,
      "A": 35,
      "B": 36,
      "C": 37,
      "D": 38,
      "E": 39,
      "F": 40,
      "G": 41,
      "H": 42,
      "I": 43,
      "J": 44,
      "K": 45,
      "L": 46,
      "M": 47,
      "N": 48,
      "O": 49,
      "P": 50,
      "Q": 51,
      "R": 52,
      "S": 53,
      "T": 54,
      "U": 55,
      "V": 56,
      "W": 57,
      "X": 58,
      "Y": 59,
      "Z": 60,
      "[": 61,
      "]": 62,
      "_": 63,
      "a": 64,
      "b": 65,
      "c": 66,
      "d": 67,
      "e": 68,
      "f": 69,
      "g": 70,
      "h": 71,
      "i": 72,
      "j": 73,
      "k": 74,
      "l": 75,
      "m": 76,
      "n": 77,
      "o": 78,
      "p": 79,
      "q": 80,
      "r": 81,
      "s": 82,
      "t": 83,
      "u": 84,
      "v": 85,
      "w": 86,
      "x": 87,
      "y": 88,
      "z": 89,
      "|": 90,
      "¡": 91,
      "¢": 92,
      "£": 93,
      "¤": 94,
      "¥": 95,
      "¦": 96,
      "§": 97,
      "¨": 98,
      "©": 99,
      "ª": 100,
      "«": 101,
      "®": 102,
      "°": 103,
      "±": 104,
      "³": 105,
      "µ": 106,
      "¶": 107,
      "º": 108,
      "»": 109,
      "¼": 110,
      "¿": 111,
      "Â": 112,
      "Ã": 113,
      "â": 114,
      "ï": 115,
      "Ċ": 116,
      "č": 117,
      "Ġ": 118,
      "Ģ": 119,
      "ģ": 120,
      "Ĥ": 121,
      "ĥ": 122,
      "Ĩ": 123,
      "ĩ": 124,
      "Ī": 125,
      "ī": 126,
      "Ĭ": 127,
      "ĭ": 128,
      "Į": 129,
      "į": 130,
      "İ": 131,
      "ı": 132,
      "Ĳ": 133,
      "ĳ": 134,
      "Ĵ": 135,
      "ĵ": 136,
      "Ķ": 137,
      "ķ": 138,
      "ĸ": 139,
      "ĺ": 140,
      "Ļ": 141,
      "ļ": 142,
      "Ľ": 143,
      "ľ": 144,
      "Ŀ": 145,
      "ŀ": 146,
      "Ł": 147,
      "ł": 148,
      "Ń": 149,
      "čĊ": 150,
      "Ġt": 151,
      "ou": 152,
      "Ġa": 153,
      "he": 154,
      "in": 155,
      "re": 156,
      "Ġw": 157,
      "Ġs": 158,
      "ha": 159,
      "on": 160,
      "Ġy": 161,
      "==": 162,
      "Ġm": 163,
      "Ġyou": 164,
      "Ġthe": 165,
      "ĠI": 166,
      "er": 167,
      "Ġb": 168,
      "is": 169,
      "ll": 170,
      "Ġg": 171,
      "ing": 172,
      "it": 173,
      "an": 174,
      "Ġd": 175,
      "Ġc": 176,
      "hat": 177,
      "Ġto": 178,
      "Ġf": 179,
      "'s": 180,
      "or": 181,
      "Ġl": 182,
      "et": 183,
      "nd": 184,
      "ow": 185,
      "ve": 186,
      "Ġn": 187,
      "====": 188,
      "Ġp": 189,
      "st": 190,
      "Ġo": 191,
      "om": 192,
      "Ġth": 193,
      "ot": 194,
      "ay": 195,
      "ed": 196,
      "ar": 197,
      "en": 198,
      "es": 199,
      "ri": 200,
      "at": 201,
      "Ġhe": 202,
      "Ġit": 203,
      "Ġof": 204,
      "Ġh": 205,
      "gh": 206,
      "Ġthat": 207,
      "Ġin": 208,
      "Ġha": 209,
      "'t": 210,
      "le": 211,
      "Ġbe": 212,
      "Ġon": 213,
      "ke": 214,
      "oo": 215,
      "as": 216,
      "Ġwe": 217,
      "Ġand": 218,
      "ut": 219,
      "Ġme": 220,
      "se": 221,
      "id": 222,
      "Ġk": 223,
      "Ġis": 224,
      "ĠW": 225,
      "ght": 226,
      "ck": 227,
      "Ġu": 228,
      "========": 229,
      "You": 230,
      "Ġdo": 231,
      "Ġe": 232,
      "ld": 233,
      "'m": 234,
      "Ġmy": 235,
      "out": 236,
      "ver": 237,
      "al": 238,
      "ĠT": 239,
      "ĠS": 240,
      "ad": 241,
      "Ġthis": 242,
      "Oh": 243,
      "ust": 244,
      "'re": 245,
      "Ġj": 246,
      "ic": 247,
      "Ġfor": 248,
      "am": 249,
      "Ġre": 250,
      "čĠ": 251,
      "Ġli": 252,
      "ĠB": 253,
      "Ġst": 254,
      "ell": 255,
      "ĠC": 256,
      "ly": 257,
      "im": 258,
      "ĠM": 259,
      "ea": 260,
      "ome": 261,
      "ĠG": 262,
      "Ġyour": 263,
      "Ġkn": 264,
      "ĠP": 265,
      "Ġ-": 266,
      "He": 267,
      "ĠA": 268,
      "ir": 269,
      "ch": 270,
      "Ġknow": 271,
      "all": 272,
      "ho": 273,
      "Ġhave": 274,
      "ith": 275,
      "Ġse": 276,
      "Ġcan": 277,
      "Ġwas": 278,
      "Ġjust": 279,
      "ĠL": 280,
      "Ġgo": 281,
      "Ġan": 282,
      "Ġwith": 283,
      "ie": 284,
      "Ġdon": 285,
      "ro": 286,
      "Ġare": 287,
      "Ġri": 288,
      "Ġwhat": 289,
      "Ġnot": 290,
      "ce": 291,
      "ould": 292,
      "ant": 293,
      "Ġne": 294,
      "Ġall": 295,
      "Ġlike": 296,
      "Ġget": 297,
      "od": 298,
      "Ġgu": 299,
      "eter": 300,
      "ĠD": 301,
      "Ġright": 302,
      "ook": 303,
      "ill": 304,
      "ry": 305,
      "Ġgot": 306,
      "ra": 307,
      "ion": 308,
      "Ġout": 309,
      "ent": 310,
      "eah": 311,
      "na": 312,
      "ct": 313,
      "if": 314,
      "ood": 315,
      "Ġso": 316,
      "Ġhere": 317,
      "================": 318,
      "one": 319,
      "Ġthere": 320,
      "ake": 321,
      "her": 322,
      "Ġat": 323,
      "and": 324,
      "ĠN": 325,
      "ur": 326,
      "pp": 327,
      "Ġab": 328,
      "ink": 329,
      "ĠH": 330,
      "Ġup": 331,
      "han": 332,
      "hing": 333,
      "op": 334,
      "'ll": 335,
      "un": 336,
      "ĠYou": 337,
      "here": 338,
      "ĠOh": 339,
      "our": 340,
      "ter": 341,
      "Hey": 342,
      "onna": 343,
      "au": 344,
      "Ġba": 345,
      "Ġabout": 346,
      "Ġsh": 347,
      "Ġguy": 348,
      "ĠJ": 349,
      "Ġ\"": 350,
      "Yeah": 351,
      "Ġgonna": 352,
      "ĠPeter": 353,
      "Ġwant": 354,
      "very": 355,
      "ally": 356,
      "Ġno": 357,
      "el": 358,
      "ight": 359,
      "ew": 360,
      "Ġone": 361,
      "Ġsee": 362,
      "Ġbut": 363,
      "ag": 364,
      "ore": 365,
      "'ve": 366,
      "It": 367,
      "Ġthink": 368,
      "Ġwor": 369,
      "IN": 370,
      "il": 371,
      "us": 372,
      "And": 373,
      "art": 374,
      "Ġas": 375,
      "Ġwho": 376,
      "ive": 377,
      "ff": 378,
      "ind": 379,
      "ĠO": 380,
      "What": 381,
      "ig": 382,
      "Ġdid": 383,
      "Ġ(": 384,
      "Ġsu": 385,
      "ĠWhat": 386,
      "kay": 387,
      "ess": 388,
      "ris": 389,
      "rom": 390,
      "ĠĠ": 391,
      "Ġus": 392,
      "ĠF": 393,
      "Ġnow": 394,
      "rian": 395,
      "hen": 396,
      "ĠR": 397,
      "own": 398,
      "ING": 399,
      "ĠGod": 400,
      "ime": 401,
      "Ġsay": 402,
      "ois": 403,
      "um": 404,
      "Ġsome": 405,
      "Well": 406,
      "ĠSt": 407,
      "Ġany": 408,
      "Ġwh": 409,
      "We": 410,
      "Ġlo": 411,
      "Ġpl": 412,
      "Ġthing": 413,
      "Ġlook": 414,
      "king": 415,
      "eg": 416,
      "ast": 417,
      "Ġal": 418,
      "his": 419,
      "ul": 420,
      "hris": 421,
      "Ġback": 422,
      "Ġgood": 423,
      "Ġif": 424,
      "That": 425,
      "rou": 426,
      "ine": 427,
      "os": 428,
      "The": 429,
      "Ġfrom": 430,
      "Ġtime": 431,
      "Ġhim": 432,
      "ble": 433,
      "Ġde": 434,
      "Ġv": 435,
      "ĠBrian": 436,
      "Ġman": 437,
      "ong": 438,
      "ol": 439,
      "Ġthey": 440,
      "ven": 441,
      "ard": 442,
      "way": 443,
      "ers": 444,
      "ame": 445,
      "ain": 446,
      "Ġgoing": 447,
      "Ġour": 448,
      "ep": 449,
      "end": 450,
      "Ġcom": 451,
      "Ġsp": 452,
      "ate": 453,
      "ire": 454,
      "ick": 455,
      "ice": 456,
      "ĠLois": 457,
      "Ġsa": 458,
      "ĠNo": 459,
      "ĠChris": 460,
      "ĠÃ": 461,
      "ist": 462,
      "itt": 463,
      "to": 464,
      "are": 465,
      "ewie": 466,
      "uck": 467,
      "Ġcould": 468,
      "hank": 469,
      "ĠIt": 470,
      "Ġher": 471,
      "Ġevery": 472,
      "Ġhow": 473,
      "ause": 474,
      "ose": 475,
      "Ġr": 476,
      "ear": 477,
      "omet": 478,
      "reat": 479,
      "em": 480,
      "Ġmo": 481,
      "But": 482,
      "be": 483,
      "Ġbeen": 484,
      "Ġguys": 485,
      "ĠE": 486,
      "Ġmean": 487,
      "fe": 488,
      "Ġhis": 489,
      "oy": 490,
      "Ġmake": 491,
      "qu": 492,
      "Ġtoo": 493,
      "Ġneed": 494,
      "ĠWe": 495,
      "Ġwould": 496,
      "ort": 497,
      "'d": 498,
      "Ġwhen": 499,
      "ily": 500,
      "Ġex": 501,
      "No": 502,
      "ĠYeah": 503,
      "Ġoff": 504,
      "orry": 505,
      "ure": 506,
      "Ġshe": 507,
      "ER": 508,
      "Ġway": 509,
      "ies": 510,
      "Ġlet": 511,
      "Ġsomet": 512,
      "Ġhad": 513,
      "cause": 514,
      "ĠThe": 515,
      "Ġreally": 516,
      "Ġor": 517,
      "lf": 518,
      "Ġtake": 519,
      "Ġwere": 520,
      "ge": 521,
      "ĠWell": 522,
      "Ġpro": 523,
      "nt": 524,
      "ous": 525,
      "ĠThat": 526,
      "ving": 527,
      "ĠStewie": 528,
      "Ġdoing": 529,
      "Ġtal": 530,
      "Qu": 531,
      "Ġover": 532,
      "Ġam": 533,
      "ody": 534,
      "hy": 535,
      "day": 536,
      "ĠHe": 537,
      "up": 538,
      "ber": 539,
      "Ġdown": 540,
      "ittle": 541,
      "================================": 542,
      "All": 543,
      "ation": 544,
      "ak": 545,
      "ait": 546,
      "res": 547,
      "Ġpe": 548,
      "Ġsomething": 549,
      "Ġag": 550,
      "Ġwhere": 551,
      "Ġcome": 552,
      "So": 553,
      "Okay": 554,
      "ace": 555,
      "Ġlove": 556,
      "Ġtell": 557,
      "ĠMeg": 558,
      "ool": 559,
      "Ġby": 560,
      "Ġcon": 561,
      "Ġro": 562,
      "Ġcl": 563,
      "ap": 564,
      "This": 565,
      "Ġwill": 566,
      "thing": 567,
      "ud": 568,
      "amily": 569,
      "Ġeven": 570,
      "ĠHey": 571,
      "Ġfe": 572,
      "ase": 573,
      "ople": 574,
      "Ġshould": 575,
      "Ġhapp": 576,
      "ting": 577,
      "ree": 578,
      "Ġlittle": 579,
      "Peter": 580,
      "ide": 581,
      "ite": 582,
      "Ġnever": 583,
      "Ġday": 584,
      "Ġhell": 585,
      "Ġthose": 586,
      "riff": 587,
      "Ġkid": 588,
      "ĠY": 589,
      "ass": 590,
      "ab": 591,
      "riend": 592,
      "ĠQu": 593,
      "ack": 594,
      "âĻ": 595,
      "riffin": 596,
      "âĻª": 597,
      "ĠU": 598,
      "est": 599,
      "Ġnew": 600,
      "ound": 601,
      "Ġthem": 602,
      "body": 603,
      "Ġ'": 604,
      "Ġhas": 605,
      "Ġmore": 606,
      "Ġbl": 607,
      "ond": 608,
      "th": 609,
      "ĠAnd": 610,
      "ĠK": 611,
      "Ġtw": 612,
      "ny": 613,
      "other": 614,
      "Ġfamily": 615,
      "urn": 616,
      "ee": 617,
      "Ġpeople": 618,
      "ci": 619,
      "ady": 620,
      "|-": 621,
      "lp": 622,
      "ĠJo": 623,
      "Ġshow": 624,
      "ought": 625,
      "aybe": 626,
      "Ġdoes": 627,
      "Ġwork": 628,
      "Ġbet": 629,
      "atch": 630,
      "irst": 631,
      "LA": 632,
      "Ġonly": 633,
      "Now": 634,
      "Ġcall": 635,
      "Ġdidn": 636,
      "ty": 637,
      "Ġsorry": 638,
      "ac": 639,
      "Ġsc": 640,
      "Ġco": 641,
      "Ġjo": 642,
      "age": 643,
      "ÃŃ": 644,
      "Ġqu": 645,
      "Ġgreat": 646,
      "ther": 647,
      "ity": 648,
      "ĠâĻª": 649,
      "Ġthen": 650,
      "Ġsaid": 651,
      "ish": 652,
      "Ġsex": 653,
      "Ġfun": 654,
      "Ġfeel": 655,
      "by": 656,
      "ret": 657,
      "ip": 658,
      "iss": 659,
      "Ġch": 660,
      "Ġthings": 661,
      "oney": 662,
      "Ġfriend": 663,
      "Ġinto": 664,
      "pl": 665,
      "Ġput": 666,
      "Ġwr": 667,
      "Ġbig": 668,
      "uh": 669,
      "ĠAll": 670,
      "Ġold": 671,
      "orn": 672,
      "Ġhelp": 673,
      "round": 674,
      "Ġthan": 675,
      "Ġagain": 676,
      "Ġmu": 677,
      "Ġhome": 678,
      "ike": 679,
      "we": 680,
      "ouse": 681,
      "uy": 682,
      "?!": 683,
      "Ġgive": 684,
      "row": 685,
      "hanks": 686,
      "AN": 687,
      "Ġtr": 688,
      "Ġtwo": 689,
      "Ġfirst": 690,
      "Ġsure": 691,
      "Ġplay": 692,
      "self": 693,
      "ĠGriffin": 694,
      "ich": 695,
      "red": 696,
      "Ġvery": 697,
      "ough": 698,
      "Ġwhy": 699,
      "iz": 700,
      "ade": 701,
      "ĠDad": 702,
      "Ġnight": 703,
      "Ġact": 704,
      "Ġother": 705,
      "Ġyeah": 706,
      "Ġbel": 707,
      "Ġpart": 708,
      "Ġhappen": 709,
      "get": 710,
      "Ġfat": 711,
      "Ġthese": 712,
      "Ġen": 713,
      "ES": 714,
      "Ġcra": 715,
      "Ġdr": 716,
      "Ġtry": 717,
      "Ġthought": 718,
      "Ġmuch": 719,
      "Ġguess": 720,
      "ĠIs": 721,
      "Ġsm": 722,
      "Ġkind": 723,
      "ng": 724,
      "Look": 725,
      "Ġstill": 726,
      "ull": 727,
      "ne": 728,
      "St": 729,
      "nder": 730,
      "ue": 731,
      "Ġtoday": 732,
      "lease": 733,
      "ird": 734,
      "Ġokay": 735,
      "ence": 736,
      "aking": 737,
      "Ġmov": 738,
      "Ġyear": 739,
      "uff": 740,
      "Ġever": 741,
      "ach": 742,
      "Ġche": 743,
      "ĠJoe": 744,
      "so": 745,
      "Ġ1": 746,
      "ĠMr": 747,
      "Ġaf": 748,
      "ile": 749,
      "Ġcar": 750,
      "Ġlea": 751,
      "Ġtalk": 752,
      "Ġfind": 753,
      "mire": 754,
      "How": 755,
      "Ġbr": 756,
      "ms": 757,
      "Ġlot": 758,
      "ress": 759,
      "xt": 760,
      "ah": 761,
      "There": 762,
      "Ġbecause": 763,
      "ĠThis": 764,
      "ian": 765,
      "Ġke": 766,
      "agmire": 767,
      "pe": 768,
      "ub": 769,
      "00": 770,
      "ĠBut": 771,
      "Ġlife": 772,
      "fore": 773,
      "ually": 774,
      "ways": 775,
      "TER": 776,
      "Ġreal": 777,
      "the": 778,
      "old": 779,
      "Ġfa": 780,
      "ucky": 781,
      "ful": 782,
      "Ġhouse": 783,
      "ieve": 784,
      "ory": 785,
      "ĠV": 786,
      "ute": 787,
      "Ġuh": 788,
      "CH": 789,
      "og": 790,
      "Ġ[": 791,
      "GH": 792,
      "ta": 793,
      "Ġboy": 794,
      "Let": 795,
      "Ġhear": 796,
      "Ġbad": 797,
      "Ġunder": 798,
      "ash": 799,
      "Ãĩ": 800,
      "Ġstart": 801,
      "Ġbetter": 802,
      "ment": 803,
      "They": 804,
      "============": 805,
      "============================": 806,
      "============================================================": 807,
      "Ġaround": 808,
      "Ġgir": 809,
      "igh": 810,
      "ĠYes": 811,
      "Ġhand": 812,
      "dy": 813,
      "Ġwatch": 814,
      "Ġid": 815,
      "man": 816,
      "ater": 817,
      "Ġun": 818,
      "Ġcare": 819,
      "Ġlast": 820,
      "ang": 821,
      "ĠTV": 822,
      "Ġgetting": 823,
      "Ġim": 824,
      "ild": 825,
      "ock": 826,
      ".]": 827,
      "Ġalways": 828,
      "augh": 829,
      "UN": 830,
      "ert": 831,
      "Ġwom": 832,
      "ave": 833,
      "Ġbelieve": 834,
      "Ġmin": 835,
      "Ġrem": 836,
      "IS": 837,
      "My": 838,
      "isten": 839,
      "Ġkill": 840,
      "Ġkids": 841,
      "ĠOkay": 842,
      "land": 843,
      "Ġle": 844,
      "mer": 845,
      "If": 846,
      "Ġcha": 847,
      "ife": 848,
      "Ġwait": 849,
      "ft": 850,
      "Ġanything": 851,
      "Ġmade": 852,
      "Ġbefore": 853,
      "amn": 854,
      "Ġad": 855,
      "Ġtheir": 856,
      "Ġused": 857,
      "Ġwell": 858,
      "ĠQuagmire": 859,
      "ans": 860,
      "Ġname": 861,
      "ost": 862,
      "able": 863,
      "IC": 864,
      "Ġbeing": 865,
      "ath": 866,
      "Ġdog": 867,
      "ious": 868,
      "Ġaway": 869,
      "Ġwhich": 870,
      "Uh": 871,
      "ĠčĠ": 872,
      "Ġchan": 873,
      "hed": 874,
      "Ġfl": 875,
      "Ġmar": 876,
      "Ġhat": 877,
      "Why": 878,
      "Ġra": 879,
      "Ġlong": 880,
      "Ġte": 881,
      "Ġsec": 882,
      "cc": 883,
      "ner": 884,
      "Is": 885,
      "aw": 886,
      "Ġafter": 887,
      "Ġsupp": 888,
      "Ġtalking": 889,
      "Ġplace": 890,
      "Ġstuff": 891,
      "Ġcou": 892,
      "pt": 893,
      "She": 894,
      "Ã¤": 895,
      "Ġown": 896,
      "Ġkeep": 897,
      "Ġbo": 898,
      "Ġpret": 899,
      "Ġwee": 900,
      "Don": 901,
      "Ġbre": 902,
      "Wow": 903,
      "chool": 904,
      "ise": 905,
      "ĠWho": 906,
      "Just": 907,
      "per": 908,
      "Ġmoney": 909,
      "Come": 910,
      "Ġmaybe": 911,
      "Ġstop": 912,
      "ren": 913,
      "Ġbaby": 914,
      "Ġgirl": 915,
      "Ġdoesn": 916,
      "Who": 917,
      "Ġbit": 918,
      "ĠUh": 919,
      "Ġturn": 920,
      "ĠSo": 921,
      "ĠHow": 922,
      "ember": 923,
      "de": 924,
      "int": 925,
      "ons": 926,
      "rough": 927,
      "ever": 928,
      "ried": 929,
      "ope": 930,
      "ating": 931,
      "Ġwhole": 932,
      "Ġlive": 933,
      "Ġroom": 934,
      "Ġhar": 935,
      "ump": 936,
      "Ġbest": 937,
      "ream": 938,
      "for": 939,
      "Ġar": 940,
      "Ġnice": 941,
      "Ã¦": 942,
      "les": 943,
      "Ġsha": 944,
      "Do": 945,
      "ug": 946,
      "Ġel": 947,
      "Ġnothing": 948,
      "pen": 949,
      "ĠÂ": 950,
      "Ã¥": 951,
      "Ġwon": 952,
      "Ġdone": 953,
      "Ġper": 954,
      "Ġask": 955,
      "Ġgl": 956,
      "Ġph": 957,
      "Good": 958,
      "Ġpos": 959,
      "Ġhaving": 960,
      "Ġyears": 961,
      "oth": 962,
      "Ġeveryone": 963,
      "lly": 964,
      "az": 965,
      "my": 966,
      "Ġseems": 967,
      "ail": 968,
      "you": 969,
      "Ġnext": 970,
      "):": 971,
      "port": 972,
      "Ġdis": 973,
      "ĠMom": 974,
      "ix": 975,
      "Ġthree": 976,
      "Ġfin": 977,
      "Ġfine": 978,
      "ord": 979,
      "Ġsound": 980,
      "Ġsl": 981,
      "Brian": 982,
      "ON": 983,
      "Ġaw": 984,
      "Ġapp": 985,
      "come": 986,
      "Ġmust": 987,
      "Ġhead": 988,
      "Ġjob": 989,
      "ia": 990,
      "ance": 991,
      "Ġanother": 992,
      "AT": 993,
      "Ġschool": 994,
      "Ġsho": 995,
      "Ġcoming": 996,
      "Ġpo": 997,
      "Ġbus": 998,
      "Ah": 999,
      "Ãĳ": 1000,
      "ello": 1001,
      "ary": 1002,
      "ict": 1003,
      "ign": 1004,
      "Ġtra": 1005,
      "Ġwanted": 1006,
      "Ġhappened": 1007,
      "ince": 1008,
      "Ġson": 1009,
      "ark": 1010,
      "Ġins": 1011,
      "Ġmom": 1012,
      "Ġtold": 1013,
      "Ġfo": 1014,
      "Ġuse": 1015,
      "RE": 1016,
      "oh": 1017,
      "Ġdi": 1018,
      "Ġsomeone": 1019,
      "Ġfriends": 1020,
      "Ġelse": 1021,
      "ues": 1022,
      "Ġplease": 1023,
      "akes": 1024,
      "Ġwrong": 1025,
      "ĠLook": 1026,
      "Ġcle": 1027,
      "ĠDo": 1028,
      "Ġass": 1029,
      "Lois": 1030,
      "ĠChrist": 1031,
      "aho": 1032,
      "Ġmay": 1033,
      "Ġthrough": 1034,
      "ahog": 1035,
      "Ġidea": 1036,
      "imes": 1037,
      "Ġ2": 1038,
      "Ġmight": 1039,
      "Ġmiss": 1040,
      "ĠLucky": 1041,
      "Yes": 1042,
      "Ġwife": 1043,
      "Ġhard": 1044,
      "aught": 1045,
      "Wait": 1046,
      "Ġeverything": 1047,
      "ron": 1048,
      "US": 1049,
      "Ġhot": 1050,
      "ably": 1051,
      "Ġisn": 1052,
      "osed": 1053,
      "ĠWhy": 1054,
      "Ġwhile": 1055,
      "ank": 1056,
      "Ġcour": 1057,
      "ated": 1058,
      "alk": 1059,
      "but": 1060,
      "Ġdri": 1061,
      "Ġgotta": 1062,
      "Ġcry": 1063,
      "Ġweek": 1064,
      "ETER": 1065,
      "Ġmeet": 1066,
      "onder": 1067,
      "Ġpretty": 1068,
      "ss": 1069,
      "LAY": 1070,
      "Ġtrying": 1071,
      "AL": 1072,
      "onight": 1073,
      "Ãľ": 1074,
      "Ġactually": 1075,
      "UGH": 1076,
      "Ġtow": 1077,
      "Ã£": 1078,
      "Ġmus": 1079,
      "gether": 1080,
      "ps": 1081,
      "Ġhey": 1082,
      "Ġbook": 1083,
      "ĠMy": 1084,
      "use": 1085,
      "CK": 1086,
      "ĠGuy": 1087,
      "Ġworld": 1088,
      "Ġrun": 1089,
      "cial": 1090,
      "Ġmind": 1091,
      "Ġseen": 1092,
      "ger": 1093,
      "ction": 1094,
      "ts": 1095,
      "Ġser": 1096,
      "Ġenough": 1097,
      "erson": 1098,
      "ĠQuahog": 1099,
      "ĠThere": 1100,
      "Ġgr": 1101,
      "anc": 1102,
      "unch": 1103,
      "enn": 1104,
      "ĠShe": 1105,
      "Ġproble": 1106,
      "Ġheard": 1107,
      "ars": 1108,
      "Ġword": 1109,
      "hes": 1110,
      "Ġdead": 1111,
      "Ġwoman": 1112,
      "bably": 1113,
      "Ġtogether": 1114,
      "Ġmovies": 1115,
      "Ġswe": 1116,
      "Ġhuh": 1117,
      "inner": 1118,
      "ob": 1119,
      "Ġdrink": 1120,
      "ĠPLAY": 1121,
      "orning": 1122,
      "Ġend": 1123,
      "ĠDon": 1124,
      "Here": 1125,
      "Ġremember": 1126,
      "ning": 1127,
      "ding": 1128,
      "Ġres": 1129,
      "Ġfather": 1130,
      "Ġleft": 1131,
      "Ġret": 1132,
      "Ġsaying": 1133,
      "Ġleave": 1134,
      "Ġmon": 1135,
      "OR": 1136,
      "Ġlooks": 1137,
      "Stewie": 1138,
      "ove": 1139,
      "ready": 1140,
      "leve": 1141,
      "Ġdad": 1142,
      "Ġwent": 1143,
      "Ġfound": 1144,
      "te": 1145,
      "Ġyourself": 1146,
      "Ġmovie": 1147,
      "ĠBr": 1148,
      "Ġvi": 1149,
      "air": 1150,
      "Ġeat": 1151,
      "Ġmusic": 1152,
      "leep": 1153,
      "Ġopen": 1154,
      "Ġsays": 1155,
      "rest": 1156,
      "Ġnews": 1157,
      "Are": 1158,
      "Ġwonder": 1159,
      "Ġcool": 1160,
      "Ġplan": 1161,
      "ĠSh": 1162,
      "ĠCome": 1163,
      "Ġtonight": 1164,
      "ĠIn": 1165,
      "Ġalso": 1166,
      "leveland": 1167,
      "itive": 1168,
      "ract": 1169,
      "mm": 1170,
      "Ġstory": 1171,
      "that": 1172,
      "ĠOn": 1173,
      "Ġmost": 1174,
      "Ġsecond": 1175,
      "Thanks": 1176,
      "pped": 1177,
      "Ġalready": 1178,
      "act": 1179,
      "ĠAh": 1180,
      "Ġcourse": 1181,
      "Ġcrap": 1182,
      "Ġsw": 1183,
      "Ġlisten": 1184,
      "Ġcheck": 1185,
      "GR": 1186,
      "Hi": 1187,
      "sh": 1188,
      "Ġter": 1189,
      "Ġval": 1190,
      "Ġbring": 1191,
      "ple": 1192,
      "Ġread": 1193,
      "nie": 1194,
      "Ġtri": 1195,
      "Ġready": 1196,
      "Ġstay": 1197,
      "Ġthank": 1198,
      "PS": 1199,
      "Ġparty": 1200,
      "LE": 1201,
      "ott": 1202,
      "Can": 1203,
      "ĠTom": 1204,
      "AS": 1205,
      "Ġsince": 1206,
      "Ġviol": 1207,
      "stand": 1208,
      "Ġrec": 1209,
      "Ġatt": 1210,
      "ors": 1211,
      "Ġlooking": 1212,
      "Ġexc": 1213,
      "iv": 1214,
      "of": 1215,
      "ather": 1216,
      "Ġsupposed": 1217,
      "Ġperson": 1218,
      "ĠNot": 1219,
      "Ġfunny": 1220,
      "Ġhaven": 1221,
      "LO": 1222,
      "Maybe": 1223,
      "Not": 1224,
      "ĠThey": 1225,
      "me": 1226,
      "ĠJust": 1227,
      "Ġproblem": 1228,
      "ĠLet": 1229,
      "Chris": 1230,
      "\"?": 1231,
      "zy": 1232,
      "Ġwear": 1233,
      "Ġspe": 1234,
      "upid": 1235,
      "ĠPLAYING": 1236,
      "ling": 1237,
      "Ġdif": 1238,
      "Ġchild": 1239,
      "Ġcont": 1240,
      "Ġminute": 1241,
      "Like": 1242,
      "Ġcame": 1243,
      "Every": 1244,
      "Ġcho": 1245,
      "rew": 1246,
      "Ġwasn": 1247,
      "ions": 1248,
      "Ġprobably": 1249,
      "where": 1250,
      "ioned": 1251,
      "less": 1252,
      "Ġey": 1253,
      "mas": 1254,
      "Ġsit": 1255,
      "Ġyes": 1256,
      "ĠGood": 1257,
      "Ġacc": 1258,
      "Ġsame": 1259,
      "unk": 1260,
      "ets": 1261,
      "Ġsaw": 1262,
      "Ãı": 1263,
      "ĠBe": 1264,
      "ĠCH": 1265,
      "room": 1266,
      "ĠWhere": 1267,
      "ins": 1268,
      "Ġcr": 1269,
      "Ġhope": 1270,
      "Ġmorning": 1271,
      "Ġdinner": 1272,
      "ork": 1273,
      "ved": 1274,
      "Ġhappy": 1275,
      "der": 1276,
      "Ġcomp": 1277,
      "Ġtook": 1278,
      "ĠAre": 1279,
      "Thank": 1280,
      "kes": 1281,
      "mp": 1282,
      "ĠNow": 1283,
      "Sorry": 1284,
      "ax": 1285,
      "ible": 1286,
      "orrow": 1287,
      "Ġsk": 1288,
      "Ġhang": 1289,
      "Ġrel": 1290,
      "Ġweird": 1291,
      "ĠWow": 1292,
      "Ġtown": 1293,
      "iness": 1294,
      "Ġfire": 1295,
      "ames": 1296,
      "av": 1297,
      "eally": 1298,
      "Ġmat": 1299,
      "Ġstr": 1300,
      "Ġunderstand": 1301,
      "Ġdec": 1302,
      "ĠChristmas": 1303,
      "ete": 1304,
      "rible": 1305,
      "Ġgame": 1306,
      "Ġmyself": 1307,
      "ĠCleveland": 1308,
      "AR": 1309,
      "ery": 1310,
      "Ġball": 1311,
      "ens": 1312,
      "LES": 1313,
      "ross": 1314,
      "Ġeverybody": 1315,
      "Ġworry": 1316,
      "Ġviolence": 1317,
      "ashioned": 1318,
      "Ġhit": 1319,
      "ters": 1320,
      "Ġsur": 1321,
      "Ġmaking": 1322,
      "Ġmany": 1323,
      "fashioned": 1324,
      "onnie": 1325,
      "Ġanyone": 1326,
      "Ġtaking": 1327,
      "Ġset": 1328,
      "Ġface": 1329,
      "LAUGH": 1330,
      "Ġhate": 1331,
      "TS": 1332,
      "Ġgone": 1333,
      "ĠCh": 1334,
      "Ġbreak": 1335,
      "gg": 1336,
      "ĠCan": 1337,
      "ush": 1338,
      "Ġhour": 1339,
      "Ġwithout": 1340,
      "Ġsuch": 1341,
      "Ġvalues": 1342,
      "ual": 1343,
      "anna": 1344,
      "ctor": 1345,
      "Ġpre": 1346,
      "ical": 1347,
      "Ġrest": 1348,
      "Ġphone": 1349,
      "umb": 1350,
      "itively": 1351,
      "In": 1352,
      "meric": 1353,
      "Ġsleep": 1354,
      "Ġstupid": 1355,
      "Ġcalled": 1356,
      "?|-": 1357,
      "ings": 1358,
      "Ġrely": 1359,
      "irt": 1360,
      "Ġdes": 1361,
      "Ġpay": 1362,
      "led": 1363,
      "Ġthanks": 1364,
      "ball": 1365,
      "arent": 1366,
      "NO": 1367,
      "Ġlate": 1368,
      "ĠCar": 1369,
      "Where": 1370,
      "Ġthinking": 1371,
      "Ġquest": 1372,
      ",\"": 1373,
      "oop": 1374,
      "Meg": 1375,
      "ib": 1376,
      "Ġdiffe": 1377,
      "IE": 1378,
      "Ġmeans": 1379,
      "Ġsweet": 1380,
      "Ġgay": 1381,
      "ense": 1382,
      "Ġhur": 1383,
      "Ġhigh": 1384,
      "Ġstand": 1385,
      "Ġsong": 1386,
      "har": 1387,
      "rent": 1388,
      "Your": 1389,
      "Griffin": 1390,
      "SI": 1391,
      "Ġwalk": 1392,
      "app": 1393,
      "Ġhold": 1394,
      "ason": 1395,
      "fect": 1396,
      "ote": 1397,
      "ĠÃĪ": 1398,
      "ize": 1399,
      "Ġwouldn": 1400,
      "with": 1401,
      "Ġpick": 1402,
      "vers": 1403,
      "Did": 1404,
      "Ġbuy": 1405,
      "Ġcut": 1406,
      "Ġonce": 1407,
      "ants": 1408,
      "Any": 1409,
      "more": 1410,
      "ount": 1411,
      "ves": 1412,
      "key": 1413,
      ".\"": 1414,
      "Ġtom": 1415,
      "ident": 1416,
      "Ġblack": 1417,
      "Ġreturn": 1418,
      "ier": 1419,
      "upert": 1420,
      "Ġbed": 1421,
      "ĠCl": 1422,
      "oon": 1423,
      "--": 1424,
      "AM": 1425,
      "Ġho": 1426,
      "Ġlost": 1427,
      "ront": 1428,
      "Ġleg": 1429,
      "xc": 1430,
      "Ġfree": 1431,
      "USIC": 1432,
      "UCK": 1433,
      "Ġpass": 1434,
      "Ġ$": 1435,
      "Ġeach": 1436,
      "ĠGet": 1437,
      "Ġbitch": 1438,
      "head": 1439,
      "ĠAmeric": 1440,
      "Ġlear": 1441,
      "outh": 1442,
      "amp": 1443,
      "Ġcrazy": 1444,
      "Ġmess": 1445,
      "asy": 1446,
      "als": 1447,
      "pect": 1448,
      "Ġsign": 1449,
      "ĠDe": 1450,
      "aut": 1451,
      "cept": 1452,
      "Ġpositively": 1453,
      "bs": 1454,
      "Ġpr": 1455,
      "arm": 1456,
      "Ġhair": 1457,
      "vor": 1458,
      "Ġpoint": 1459,
      "Ġbusiness": 1460,
      "Aw": 1461,
      "Ġboth": 1462,
      "ÃĬ": 1463,
      "Ġbird": 1464,
      "Ġbud": 1465,
      "Ġcat": 1466,
      "Ġthrow": 1467,
      "ĠWait": 1468,
      "ĠNew": 1469,
      "Ġdie": 1470,
      "rap": 1471,
      "Ġcompl": 1472,
      "icture": 1473,
      "co": 1474,
      "Ġwater": 1475,
      "Ġpie": 1476,
      "ĠÃ£": 1477,
      "TE": 1478,
      "Ġwanna": 1479,
      "Ġbu": 1480,
      "Ġfive": 1481,
      "aughter": 1482,
      "TING": 1483,
      "Ġpres": 1484,
      "Ġent": 1485,
      "Ġprom": 1486,
      "Ġsir": 1487,
      ",|": 1488,
      "arr": 1489,
      "Ġworking": 1490,
      "Ġsing": 1491,
      "Ġcard": 1492,
      "PETER": 1493,
      "ned": 1494,
      "son": 1495,
      "Ġfood": 1496,
      "Ġbath": 1497,
      "Ġpicture": 1498,
      "eak": 1499,
      "band": 1500,
      "Ġfell": 1501,
      "Ġem": 1502,
      "br": 1503,
      "ots": 1504,
      "any": 1505,
      "Ġknew": 1506,
      "io": 1507,
      "Ġfew": 1508,
      "orm": 1509,
      "Ġglad": 1510,
      "ward": 1511,
      "Ġmakes": 1512,
      "cks": 1513,
      "aul": 1514,
      "Ġhoney": 1515,
      "utes": 1516,
      "Ġwants": 1517,
      "umber": 1518,
      "Ġtomorrow": 1519,
      "TH": 1520,
      "Ġwin": 1521,
      "Ġbar": 1522,
      "ĠMe": 1523,
      "ĠHi": 1524,
      "Ġfour": 1525,
      "ĠMUSIC": 1526,
      "Ġdeal": 1527,
      "Be": 1528,
      "Ġhor": 1529,
      "ĠHo": 1530,
      "Ġbag": 1531,
      "See": 1532,
      "Ġclass": 1533,
      "most": 1534,
      "Ġhalf": 1535,
      "ĠSp": 1536,
      "ult": 1537,
      "Ġtrue": 1538,
      "Ġfront": 1539,
      "rop": 1540,
      "ton": 1541,
      "ĠThanks": 1542,
      "ram": 1543,
      "Ġfinally": 1544,
      "iving": 1545,
      "ĠDid": 1546,
      "Ġtou": 1547,
      "esome": 1548,
      "Ġinst": 1549,
      "igure": 1550,
      "Ġsounds": 1551,
      "side": 1552,
      "Ġear": 1553,
      "Ġimp": 1554,
      "Ġwomen": 1555,
      "When": 1556,
      "Ġwhite": 1557,
      "Hello": 1558,
      "Ġair": 1559,
      "ular": 1560,
      "men": 1561,
      "usband": 1562,
      "Ġfact": 1563,
      "CHUCK": 1564,
      "Ġfight": 1565,
      "ower": 1566,
      "ition": 1567,
      "irth": 1568,
      "Ġplaying": 1569,
      "ĠGl": 1570,
      "Ġanymore": 1571,
      "Ġdays": 1572,
      "Sh": 1573,
      "Ġtea": 1574,
      "ĠBl": 1575,
      "Ġvo": 1576,
      "GRUN": 1577,
      "Ġdifferent": 1578,
      "CRE": 1579,
      "Ġdoor": 1580,
      "Ġgets": 1581,
      "Ġcouldn": 1582,
      "Get": 1583,
      "ged": 1584,
      "ĠIf": 1585,
      "Ġbeaut": 1586,
      "ĠÃĩ": 1587,
      "Ġac": 1588,
      "Ġmen": 1589,
      "Ġbro": 1590,
      "ited": 1591,
      "lic": 1592,
      "ese": 1593,
      "iful": 1594,
      "Ġcomes": 1595,
      "aper": 1596,
      "portant": 1597,
      "Dad": 1598,
      "Go": 1599,
      "RO": 1600,
      "Ġpen": 1601,
      "Ġhands": 1602,
      "com": 1603,
      "do": 1604,
      "Ġyet": 1605,
      "ither": 1606,
      "Ġpri": 1607,
      "ster": 1608,
      "ĠRupert": 1609,
      "Ġmove": 1610,
      "Ġyoung": 1611,
      "vel": 1612,
      "Ġperfect": 1613,
      "rought": 1614,
      "joy": 1615,
      "Ġbra": 1616,
      "ister": 1617,
      "Ġru": 1618,
      "Ġminutes": 1619,
      "Ġfoot": 1620,
      "Ġside": 1621,
      "oss": 1622,
      "reet": 1623,
      "Ġgra": 1624,
      "Ġgave": 1625,
      "Ġdamn": 1626,
      "Then": 1627,
      "Ġfigure": 1628,
      "Ġhusband": 1629,
      "ĠFor": 1630,
      "ntil": 1631,
      "Ġchange": 1632,
      "eal": 1633,
      "ĠHello": 1634,
      "EN": 1635,
      "ched": 1636,
      "Ġmet": 1637,
      "GHS": 1638,
      "llow": 1639,
      "ired": 1640,
      "Ġleast": 1641,
      "Ġterrible": 1642,
      "LY": 1643,
      "Ġ3": 1644,
      "Ġmother": 1645,
      "ations": 1646,
      "Ġimportant": 1647,
      "CER": 1648,
      "bo": 1649,
      "Ġclean": 1650,
      "hn": 1651,
      "Ġtop": 1652,
      "ĠTh": 1653,
      "ĠAw": 1654,
      "ĠLaugh": 1655,
      "Ġcomm": 1656,
      "UNCER": 1657,
      "Ġserious": 1658,
      "NOUNCER": 1659,
      "Ġ4": 1660,
      "Ġspecial": 1661,
      "Ġla": 1662,
      "Ġlight": 1663,
      "eez": 1664,
      "Ġwish": 1665,
      "iting": 1666,
      "igg": 1667,
      "Ġcount": 1668,
      "cle": 1669,
      "und": 1670,
      "Ġforg": 1671,
      "Ġgoes": 1672,
      "ude": 1673,
      "Ġinside": 1674,
      "ĠSorry": 1675,
      "Ġspend": 1676,
      "God": 1677,
      "ony": 1678,
      "Ġbrought": 1679,
      "Ġlaw": 1680,
      "CHUCKLES": 1681,
      "Ġbody": 1682,
      "its": 1683,
      "xcuse": 1684,
      "For": 1685,
      "II": 1686,
      "cer": 1687,
      "ect": 1688,
      "Ġstar": 1689,
      "EP": 1690,
      "Ġclose": 1691,
      "azing": 1692,
      "Ġbirth": 1693,
      "ric": 1694,
      "Ġinv": 1695,
      "Ġrid": 1696,
      "SIGHS": 1697,
      "Ġfull": 1698,
      "itting": 1699,
      "Ġmarried": 1700,
      "LING": 1701,
      "Ġlaugh": 1702,
      "Ġbeautiful": 1703,
      "Ġdel": 1704,
      "att": 1705,
      "ĠWh": 1706,
      "ĠGo": 1707,
      "actly": 1708,
      "Damn": 1709,
      "On": 1710,
      "Ã¡": 1711,
      "ates": 1712,
      "Ġhum": 1713,
      "?\"": 1714,
      "ale": 1715,
      "oe": 1716,
      "GAS": 1717,
      "ene": 1718,
      "ĠSc": 1719,
      "ents": 1720,
      "Mr": 1721,
      "ces": 1722,
      "ru": 1723,
      "ĠBonnie": 1724,
      "EL": 1725,
      "Ġap": 1726,
      "Ġnumber": 1727,
      "Really": 1728,
      "dle": 1729,
      "iet": 1730,
      "esus": 1731,
      "Ġuntil": 1732,
      "ĠThank": 1733,
      "Ġago": 1734,
      "Ġcoll": 1735,
      "Ġchildren": 1736,
      "Ġce": 1737,
      "Ġparent": 1738,
      "Ġwatching": 1739,
      "QU": 1740,
      "ness": 1741,
      "Ġchick": 1742,
      "ney": 1743,
      "Ġfavor": 1744,
      "Ġshot": 1745,
      "Ġdrive": 1746,
      "Ġwind": 1747,
      "Ġsmell": 1748,
      "med": 1749,
      "Ġtimes": 1750,
      "ung": 1751,
      "ĠFam": 1752,
      "Ġain": 1753,
      "Ġsn": 1754,
      "Ġpain": 1755,
      "Ġforget": 1756,
      "ĠYour": 1757,
      "Ġmonth": 1758,
      "Ġsomebody": 1759,
      "uth": 1760,
      "Ġjoke": 1761,
      "du": 1762,
      "ane": 1763,
      "ically": 1764,
      "ÃľÃľ": 1765,
      "Ġlater": 1766,
      "Ġoh": 1767,
      "Ġheart": 1768,
      "olog": 1769,
      "Ġhours": 1770,
      "Ġbuddy": 1771,
      "ks": 1772,
      "wer": 1773,
      "who": 1774,
      "ention": 1775,
      "cher": 1776,
      "Ġenjoy": 1777,
      "Ġclear": 1778,
      "Ġmatter": 1779,
      "itch": 1780,
      "Ġtot": 1781,
      "Ġlady": 1782,
      "Ġeasy": 1783,
      "ĠSe": 1784,
      "ĠDamn": 1785,
      "ĠÂĺ": 1786,
      "Ġily": 1787,
      "Ġthough": 1788,
      "Ġaren": 1789,
      "Ġmach": 1790,
      "raid": 1791,
      "tern": 1792,
      "ĠJohn": 1793,
      "Ġbathroom": 1794,
      "Ġvoice": 1795,
      "IR": 1796,
      "ying": 1797,
      "ined": 1798,
      "vent": 1799,
      "Please": 1800,
      "Ġdream": 1801,
      "Ġdaughter": 1802,
      "ÃĶ": 1803,
      "Ġtrou": 1804,
      "Ġreason": 1805,
      "elcome": 1806,
      "Ġneeds": 1807,
      "ĠHere": 1808,
      "Cause": 1809,
      "Wh": 1810,
      "ler": 1811,
      "arb": 1812,
      "ĠAl": 1813,
      "Ġalmost": 1814,
      "ĠEvery": 1815,
      "!|-": 1816,
      "ipp": 1817,
      "ze": 1818,
      "Ġ5": 1819,
      "entle": 1820,
      "Ġcop": 1821,
      "ats": 1822,
      "Ġkick": 1823,
      "ĠTo": 1824,
      "Ġsoon": 1825,
      "ĠBecause": 1826,
      "Ġahead": 1827,
      "Ġmag": 1828,
      "Ġpol": 1829,
      "ĠChe": 1830,
      "Ġknows": 1831,
      "Ġwhatever": 1832,
      "Ġdef": 1833,
      "Ġamazing": 1834,
      "Ha": 1835,
      "Some": 1836,
      "Ġmouth": 1837,
      "Ġbox": 1838,
      "Boy": 1839,
      "Listen": 1840,
      "Ġfore": 1841,
      "Ġbeer": 1842,
      "Ġafraid": 1843,
      "Ġchar": 1844,
      "Ġchance": 1845,
      "airs": 1846,
      "ev": 1847,
      "ĠAr": 1848,
      "Whoa": 1849,
      "hind": 1850,
      "Ġmed": 1851,
      "Ġcook": 1852,
      "Ġline": 1853,
      "Ġum": 1854,
      "ĠPETER": 1855,
      "Ġidi": 1856,
      "Ġeyes": 1857,
      "LAUGHS": 1858,
      "Man": 1859,
      "cl": 1860,
      "ĠWest": 1861,
      "Ġconf": 1862,
      "ied": 1863,
      "adies": 1864,
      "Ġstore": 1865,
      "Ġpull": 1866,
      "ĠSure": 1867,
      "ĠJesus": 1868,
      "ONE": 1869,
      "Ġwearing": 1870,
      "Ġsix": 1871,
      "Ġfar": 1872,
      "Ġless": 1873,
      "Ġkiss": 1874,
      "Ġtouch": 1875,
      "GASPS": 1876,
      "Me": 1877,
      "che": 1878,
      "oud": 1879,
      "Ġsqu": 1880,
      "Ġfre": 1881,
      "ĠOw": 1882,
      "Al": 1883,
      "OM": 1884,
      "Ġans": 1885,
      "Ãĵ": 1886,
      "Ġbas": 1887,
      "Ġint": 1888,
      "Ġreg": 1889,
      "ized": 1890,
      "Ġawesome": 1891,
      "Ġquestion": 1892,
      "ĠGlenn": 1893,
      "Ġgun": 1894,
      "Ġshut": 1895,
      "Ġsmo": 1896,
      "Ġbirthday": 1897,
      "Ġfast": 1898,
      "Mom": 1899,
      "Ġshort": 1900,
      "Ġworse": 1901,
      "Ġexactly": 1902,
      "ĠDaddy": 1903,
      "WIE": 1904,
      "Ġpants": 1905,
      "Ġdoll": 1906,
      "Ġbrother": 1907,
      "Ġkilled": 1908,
      "cha": 1909,
      "Ġmil": 1910,
      "Ġbott": 1911,
      "ĠHa": 1912,
      "ĠJew": 1913,
      "000": 1914,
      "Ġtried": 1915,
      "Ġboo": 1916,
      "Ġpar": 1917,
      "Ġbehind": 1918,
      "ĠPat": 1919,
      "izz": 1920,
      "TEWIE": 1921,
      "ial": 1922,
      "Ġmachine": 1923,
      "Huh": 1924,
      "Um": 1925,
      "wo": 1926,
      "Ġfil": 1927,
      "Ġalone": 1928,
      "Ġcouple": 1929,
      "Ġhurt": 1930,
      "no": 1931,
      "Ġmine": 1932,
      "anta": 1933,
      "uss": 1934,
      "Ġ19": 1935,
      "ĠMrs": 1936,
      "ALL": 1937,
      "Joe": 1938,
      "what": 1939,
      "Ġdra": 1940,
      "Ġpast": 1941,
      "ared": 1942,
      "Ġexpl": 1943,
      "oose": 1944,
      "ides": 1945,
      "ĠAah": 1946,
      "Ġride": 1947,
      "ĠJames": 1948,
      "ĠRo": 1949,
      "One": 1950,
      "unt": 1951,
      "ucker": 1952,
      "Ġquite": 1953,
      "Ġposs": 1954,
      "Ġtest": 1955,
      "ining": 1956,
      "Ġwar": 1957,
      "Ġsal": 1958,
      "hose": 1959,
      "Ġstarted": 1960,
      "Lucky": 1961,
      "ERING": 1962,
      "HONE": 1963,
      "Ġoutside": 1964,
      "Ġkidding": 1965,
      "Ġtrouble": 1966,
      "ĠAs": 1967,
      "ĠHuh": 1968,
      "Ġdied": 1969,
      "ced": 1970,
      "eth": 1971,
      "Ġsto": 1972,
      "els": 1973,
      "Ġdrunk": 1974,
      "sc": 1975,
      "ode": 1976,
      "Ġwhoa": 1977,
      "Ġsmall": 1978,
      "pris": 1979,
      "oun": 1980,
      "Ġanyway": 1981,
      "Ġfollow": 1982,
      "Ġsent": 1983,
      "ision": 1984,
      "Ġpop": 1985,
      "Ġseem": 1986,
      "Ġtelling": 1987,
      "LOIS": 1988,
      "Ġparents": 1989,
      "Or": 1990,
      "Ġwel": 1991,
      "ĠAn": 1992,
      "KING": 1993,
      "Ġmill": 1994,
      "ital": 1995,
      "Ġstud": 1996,
      "BO": 1997,
      "aid": 1998,
      "not": 1999,
      "Ġmid": 2000,
      "Ġmem": 2001,
      "cal": 2002,
      "ĠMaybe": 2003,
      "illy": 2004,
      "ĠOr": 2005,
      "Ġboys": 2006,
      "RI": 2007,
      "Right": 2008,
      "Ugh": 2009,
      "Ġtick": 2010,
      "Ġdate": 2011,
      "Ġann": 2012,
      "gest": 2013,
      "Ġcomplete": 2014,
      "Ġcatch": 2015,
      "Ġob": 2016,
      "iew": 2017,
      "uring": 2018,
      "Ġshoot": 2019,
      "wh": 2020,
      "Ġz": 2021,
      "Ġsell": 2022,
      "ĠDr": 2023,
      "apt": 2024,
      "FF": 2025,
      "ye": 2026,
      "Ġbri": 2027,
      "Ġbeg": 2028,
      "ield": 2029,
      "Ġable": 2030,
      "Ġteam": 2031,
      "Ġtable": 2032,
      "Ġsick": 2033,
      "Ġdance": 2034,
      "ĠĠĠ": 2035,
      "aste": 2036,
      "ĠWhoa": 2037,
      "CREAM": 2038,
      "ead": 2039,
      "like": 2040,
      "Ġdress": 2041,
      "ids": 2042,
      "Ġdoctor": 2043,
      "ĠSw": 2044,
      "oods": 2045,
      "Ġroll": 2046,
      "ape": 2047,
      "Anyway": 2048,
      "Our": 2049,
      "ches": 2050,
      "ph": 2051,
      "ĠBri": 2052,
      "Ġmoment": 2053,
      "Ġwonderful": 2054,
      "Ġwelcome": 2055,
      "PING": 2056,
      "vice": 2057,
      "ys": 2058,
      "ina": 2059,
      "Ġwhe": 2060,
      "Ġpur": 2061,
      "Ġinte": 2062,
      "ĠMan": 2063,
      "Stop": 2064,
      "Ġinterest": 2065,
      "As": 2066,
      "Ooh": 2067,
      "reen": 2068,
      "Ġeither": 2069,
      "Ġstick": 2070,
      "ffee": 2071,
      "Ġquick": 2072,
      "Ġ20": 2073,
      "Ġtotally": 2074,
      "fter": 2075,
      "ience": 2076,
      "Ġfall": 2077,
      "Ġinter": 2078,
      "kend": 2079,
      "ĠSanta": 2080,
      "ĠMon": 2081,
      "ĠAN": 2082,
      "Ġwrite": 2083,
      "Ġgen": 2084,
      "Ġgentle": 2085,
      "lebr": 2086,
      "Ġshirt": 2087,
      "elt": 2088,
      "ucks": 2089,
      "Ġaff": 2090,
      "ĠMar": 2091,
      "Ġadd": 2092,
      "Ġeye": 2093,
      "ault": 2094,
      "Ġfavorite": 2095,
      "just": 2096,
      "Ġ9": 2097,
      "Ġfam": 2098,
      "Ġliving": 2099,
      "ighb": 2100,
      "IM": 2101,
      "Ġmur": 2102,
      "Ġcri": 2103,
      "ĠLike": 2104,
      "ĠOK": 2105,
      "ĠStop": 2106,
      "IST": 2107,
      "Ġidiot": 2108,
      "Ġanswer": 2109,
      "mit": 2110,
      "iny": 2111,
      "Ġsad": 2112,
      "Ġporn": 2113,
      "ator": 2114,
      "ĠWill": 2115,
      "Ġneighb": 2116,
      "con": 2117,
      "aster": 2118,
      "Ġrock": 2119,
      "dd": 2120,
      "een": 2121,
      "Ġstra": 2122,
      "ĠNe": 2123,
      "Ġnobody": 2124,
      "Ġbutt": 2125,
      "ĠRight": 2126,
      "Ġplane": 2127,
      "UD": 2128,
      "Ġhi": 2129,
      "sel": 2130,
      "ĠWhen": 2131,
      "Ġyours": 2132,
      "ĠFr": 2133,
      "ĠÃı": 2134,
      "Ġevening": 2135,
      "Ġpenis": 2136,
      "ring": 2137,
      "Ġmad": 2138,
      "Ġpoop": 2139,
      "Ġpaper": 2140,
      "Ġsend": 2141,
      "ift": 2142,
      "ĠOf": 2143,
      "Ġorder": 2144,
      "Ġweekend": 2145,
      "Great": 2146,
      "ering": 2147,
      "Ġbull": 2148,
      "Ġgirls": 2149,
      "ĠÂ¡": 2150,
      "Would": 2151,
      "rat": 2152,
      "Ġdrug": 2153,
      "Ġtrip": 2154,
      "how": 2155,
      "mid": 2156,
      "Ġwed": 2157,
      "iter": 2158,
      "Ġdist": 2159,
      "ided": 2160,
      "olute": 2161,
      "ANNOUNCER": 2162,
      "Have": 2163,
      "Th": 2164,
      "Ġeating": 2165,
      "Ġpiece": 2166,
      "Guy": 2167,
      "iver": 2168,
      "ĠIike": 2169,
      "Ġfix": 2170,
      "ĠSome": 2171,
      "ĠBoy": 2172,
      "Ġstri": 2173,
      "ctually": 2174,
      "ertain": 2175,
      "Ġhole": 2176,
      "Excuse": 2177,
      "ten": 2178,
      "Ġcase": 2179,
      "Ġfly": 2180,
      "Ġele": 2181,
      "ĠTucker": 2182,
      "Ġlose": 2183,
      "Ġvide": 2184,
      "GRUNTS": 2185,
      "HO": 2186,
      "Ġbought": 2187,
      "ĠCo": 2188,
      "ĠJe": 2189,
      "Ġcoffee": 2190,
      "Ġawful": 2191,
      "ls": 2192,
      "Ġsy": 2193,
      "Ġnorm": 2194,
      "alking": 2195,
      "ics": 2196,
      "ween": 2197,
      "Ġlives": 2198,
      "Ġasked": 2199,
      "Ġcelebr": 2200,
      "PHONE": 2201,
      "bb": 2202,
      "min": 2203,
      "nel": 2204,
      "ows": 2205,
      "ĠMic": 2206,
      "pping": 2207,
      "tle": 2208,
      "ones": 2209,
      "ama": 2210,
      "ĠUn": 2211,
      "Ġblood": 2212,
      "ELL": 2213,
      "iant": 2214,
      "work": 2215,
      "bert": 2216,
      "anger": 2217,
      "Ġsurpris": 2218,
      "Welcome": 2219,
      "from": 2220,
      "lor": 2221,
      "time": 2222,
      "ĠAd": 2223,
      "onest": 2224,
      "Ġsuper": 2225,
      "Ġalong": 2226,
      "Ġstarting": 2227,
      "Ġcompany": 2228,
      "fort": 2229,
      "ked": 2230,
      "let": 2231,
      "erry": 2232,
      "ished": 2233,
      "Ġgiving": 2234,
      "Ġfing": 2235,
      "Ġhero": 2236,
      "ĠOoh": 2237,
      "Ġflo": 2238,
      "gy": 2239,
      "Ġbunch": 2240,
      "Ġdou": 2241,
      "Ġrep": 2242,
      "ĠMc": 2243,
      "ĠMay": 2244,
      "rol": 2245,
      "Ġclos": 2246,
      "ounds": 2247,
      "Ġsecret": 2248,
      "ey": 2249,
      "Ġtreat": 2250,
      "Ġland": 2251,
      "Ġang": 2252,
      "ulous": 2253,
      "Ġsave": 2254,
      "Ġwall": 2255,
      "Ġfelt": 2256,
      "Ġstep": 2257,
      "chmid": 2258,
      "emember": 2259,
      "OAN": 2260,
      "fast": 2261,
      "iam": 2262,
      "vil": 2263,
      "ines": 2264,
      "Ġfart": 2265,
      "ĠCom": 2266,
      "Ġbast": 2267,
      "Ġext": 2268,
      "Quagmire": 2269,
      "Ġsmart": 2270,
      "Ġgrand": 2271,
      "ming": 2272,
      "uts": 2273,
      "ublic": 2274,
      "Ġrunning": 2275,
      "EERING": 2276,
      "eople": 2277,
      "fl": 2278,
      "sing": 2279,
      "oof": 2280,
      "Ġworst": 2281,
      "Ġworth": 2282,
      "ester": 2283,
      "Ġboat": 2284,
      "Ġglass": 2285,
      "ĠAmerica": 2286,
      "Ġwedding": 2287,
      "Ġbastard": 2288,
      "ma": 2289,
      "ĠZ": 2290,
      "ege": 2291,
      "roud": 2292,
      "Ġring": 2293,
      "aces": 2294,
      "Ġfeeling": 2295,
      "Ã¦Ã¤": 2296,
      "chmidt": 2297,
      "Of": 2298,
      "rand": 2299,
      "inci": 2300,
      "Ġsand": 2301,
      "Ġyell": 2302,
      "Ġbeat": 2303,
      "Ġep": 2304,
      "ĠAny": 2305,
      "ewters": 2306,
      "Ġoffice": 2307,
      "Ġclub": 2308,
      "ÃŃÃ¤": 2309,
      "uke": 2310,
      "ised": 2311,
      "asure": 2312,
      "ĠFamily": 2313,
      "ument": 2314,
      "Ġalive": 2315,
      "uge": 2316,
      "erk": 2317,
      "Ġgrow": 2318,
      "Ġtoil": 2319,
      "ĠLO": 2320,
      "ĠRING": 2321,
      "Ġdeath": 2322,
      "Guys": 2323,
      "cy": 2324,
      "ana": 2325,
      "Ġdro": 2326,
      "atur": 2327,
      "ills": 2328,
      "Ġsafe": 2329,
      "Ġsometimes": 2330,
      "Ġdrinking": 2331,
      "To": 2332,
      "aur": 2333,
      "ex": 2334,
      "wood": 2335,
      "Ġcreat": 2336,
      "Ġstuck": 2337,
      "lfriend": 2338,
      "Ġforgot": 2339,
      "izza": 2340,
      "ewterschmidt": 2341,
      "Ġsister": 2342,
      "Ġdire": 2343,
      "Ġcol": 2344,
      "Ġpark": 2345,
      "edy": 2346,
      "esides": 2347,
      "Ġits": 2348,
      "Ġhon": 2349,
      "Ġstreet": 2350,
      "Ġallow": 2351,
      "ĠOne": 2352,
      "Ġturned": 2353,
      "ĠAmerican": 2354,
      "Ġbuild": 2355,
      "ME": 2356,
      "kin": 2357,
      "Ġice": 2358,
      "Ġsense": 2359,
      "ative": 2360,
      "Ġegg": 2361,
      "ĠTH": 2362,
      "Ġdest": 2363,
      "aken": 2364,
      "Ġphot": 2365,
      "Ġresp": 2366,
      "Ġlearn": 2367,
      "Ġemb": 2368,
      "Take": 2369,
      "ket": 2370,
      "set": 2371,
      "inite": 2372,
      "Ġfault": 2373,
      "amed": 2374,
      "pper": 2375,
      "Ġsuck": 2376,
      "Ġtrust": 2377,
      "Ġart": 2378,
      "ĠShut": 2379,
      "Somet": 2380,
      "fic": 2381,
      "go": 2382,
      "ĠPlease": 2383,
      "ĠReally": 2384,
      "bye": 2385,
      "ÃĩÃĳ": 2386,
      "ship": 2387,
      "ĠCarter": 2388,
      "olutely": 2389,
      "sy": 2390,
      "Âĺ": 2391,
      "Ġlunch": 2392,
      "Ġinc": 2393,
      "ĠBig": 2394,
      "ĠAm": 2395,
      "Ġcandy": 2396,
      "Ġagainst": 2397,
      "Ġsim": 2398,
      "Ġpot": 2399,
      "Ġpost": 2400,
      "Ġproud": 2401,
      "Ġcountry": 2402,
      "selves": 2403,
      "ST": 2404,
      "this": 2405,
      "Ġheal": 2406,
      "Ġexcuse": 2407,
      "Ġchoice": 2408,
      "Ġforever": 2409,
      "Ġsun": 2410,
      "Ġcream": 2411,
      "riage": 2412,
      "Ġhist": 2413,
      "Ġbecome": 2414,
      "ĠGreat": 2415,
      "Ġself": 2416,
      "Ġvac": 2417,
      "Ġfeet": 2418,
      "Ġbetween": 2419,
      "Ġfair": 2420,
      "Ġdisc": 2421,
      "Ġwords": 2422,
      "Ġridic": 2423,
      "ging": 2424,
      "Ġes": 2425,
      "Ġtakes": 2426,
      "Ġcor": 2427,
      "Ġpower": 2428,
      "rison": 2429,
      "Ġusing": 2430,
      "ĠEng": 2431,
      "Ġwaiting": 2432,
      "Ġpromise": 2433,
      "thy": 2434,
      "Ġcons": 2435,
      "ĠUm": 2436,
      "Ġscrew": 2437,
      "Ġcold": 2438,
      "Everyone": 2439,
      "ĠÃ£ÃŃ": 2440,
      "Che": 2441,
      "Ġmail": 2442,
      "Ġfish": 2443,
      "ĠTr": 2444,
      "Ġspeak": 2445,
      "Ġnormal": 2446,
      "initely": 2447,
      "Ġmist": 2448,
      "Ġred": 2449,
      "roup": 2450,
      "Ġfeels": 2451,
      "Ġchair": 2452,
      "iously": 2453,
      "OOR": 2454,
      "ange": 2455,
      "ays": 2456,
      "ley": 2457,
      "Ġmeant": 2458,
      "Ġreport": 2459,
      "ume": 2460,
      "Ġshouldn": 2461,
      "Ġlead": 2462,
      "Ġbreakfast": 2463,
      "Because": 2464,
      "80": 2465,
      "At": 2466,
      "RIS": 2467,
      "ox": 2468,
      "Ġsitting": 2469,
      "arbage": 2470,
      "Ġvideo": 2471,
      "BLE": 2472,
      "col": 2473,
      "era": 2474,
      "ories": 2475,
      "Ġpack": 2476,
      "Ġhuge": 2477,
      "urch": 2478,
      "Ġanybody": 2479,
      "ately": 2480,
      "Ġsuppose": 2481,
      "Ġmeeting": 2482,
      "Ġlearned": 2483,
      "Ġcollege": 2484,
      "Ġmonths": 2485,
      "Ġridiculous": 2486,
      "chen": 2487,
      "Ġburn": 2488,
      "Ġcity": 2489,
      "Ġpress": 2490,
      "ĠChar": 2491,
      "ĠAt": 2492,
      "Ġexp": 2493,
      "Ġhappens": 2494,
      "ancy": 2495,
      "ium": 2496,
      "Ġ6": 2497,
      "Ġsort": 2498,
      "Ġda": 2499,
      "Ġhappening": 2500,
      "anson": 2501,
      "Ġpretend": 2502,
      "Ġrecord": 2503,
      "Ġquestions": 2504,
      "Ġhorse": 2505,
      "BOTH": 2506,
      "uture": 2507,
      "Ġworked": 2508,
      "Ġgirlfriend": 2509,
      "form": 2510,
      "Ġmillion": 2511,
      "Aah": 2512,
      "cent": 2513,
      "mo": 2514,
      "pal": 2515,
      "Ġow": 2516,
      "Ġya": 2517,
      "erv": 2518,
      "Ġref": 2519,
      "ĠLA": 2520,
      "osp": 2521,
      "resh": 2522,
      "Ġpee": 2523,
      "ache": 2524,
      "Ġtruth": 2525,
      "evin": 2526,
      "RIAN": 2527,
      "Ġtoilet": 2528,
      "ject": 2529,
      "stairs": 2530,
      "ilar": 2531,
      "Ġhimself": 2532,
      "ĠÃ¤": 2533,
      "mercial": 2534,
      "Ġdecided": 2535,
      "esterday": 2536,
      "EA": 2537,
      "STEWIE": 2538,
      "lo": 2539,
      "Ġed": 2540,
      "Ġband": 2541,
      "Ġcal": 2542,
      "ĠSha": 2543,
      "Ġjerk": 2544,
      "ored": 2545,
      "ĠRed": 2546,
      "Ġexpect": 2547,
      "Ġworks": 2548,
      "Ġjoin": 2549,
      "ully": 2550,
      "ccess": 2551,
      "Ġboard": 2552,
      "laugh": 2553,
      "Ġten": 2554,
      "Ġtill": 2555,
      "Ġbase": 2556,
      "Ġloud": 2557,
      "Ġpat": 2558,
      "Ġsucks": 2559,
      "astic": 2560,
      "IT": 2561,
      "ted": 2562,
      "zz": 2563,
      "Ġve": 2564,
      "Ġtur": 2565,
      "Ġdump": 2566,
      "ĠPr": 2567,
      "irty": 2568,
      "Ġabs": 2569,
      "Ġdep": 2570,
      "Ġcalling": 2571,
      "Ġlegs": 2572,
      "ID": 2573,
      "can": 2574,
      "ÃĪ": 2575,
      "Ġgross": 2576,
      "idence": 2577,
      "ĠGe": 2578,
      "Ġasking": 2579,
      "ĠRe": 2580,
      "ĠÃĬ": 2581,
      "ĠEl": 2582,
      "Ġclot": 2583,
      "about": 2584,
      "Ġentire": 2585,
      "arrass": 2586,
      "ĠJewish": 2587,
      "Ġmiddle": 2588,
      "Ġgentlemen": 2589,
      "cri": 2590,
      "over": 2591,
      "ĠMa": 2592,
      "ĠMiss": 2593,
      "roy": 2594,
      "Ġseeing": 2595,
      "Ġthinks": 2596,
      "arth": 2597,
      "Ġblow": 2598,
      "Ġshoes": 2599,
      "Ġneighbor": 2600,
      "Ġepis": 2601,
      "\".": 2602,
      "ered": 2603,
      "when": 2604,
      "Ġsna": 2605,
      "Ġbow": 2606,
      "Ġpool": 2607,
      "Ġknock": 2608,
      "These": 2609,
      "ĠÃ¦": 2610,
      "ears": 2611,
      "appy": 2612,
      "Ġhuman": 2613,
      "ternet": 2614,
      "ED": 2615,
      "ior": 2616,
      "read": 2617,
      "Ġmis": 2618,
      "Ġladies": 2619,
      "Ġhonest": 2620,
      "Ġanim": 2621,
      "Ġimag": 2622,
      "Ġtele": 2623,
      "Ġfinish": 2624,
      "your": 2625,
      "Ġtaken": 2626,
      "Ġaud": 2627,
      "reate": 2628,
      "Ġsou": 2629,
      "have": 2630,
      "Ġgroup": 2631,
      "Ġfill": 2632,
      "orge": 2633,
      "ĠBob": 2634,
      "Ġrich": 2635,
      "iff": 2636,
      "Ġsport": 2637,
      "aked": 2638,
      "Ġmarriage": 2639,
      "Ġwindow": 2640,
      "CT": 2641,
      "SN": 2642,
      "WH": 2643,
      "Ġbreat": 2644,
      "Ġgarbage": 2645,
      "Ġcamp": 2646,
      "Ġfan": 2647,
      "Ġfuture": 2648,
      "Ġhosp": 2649,
      "Ġlocal": 2650,
      "Ġtext": 2651,
      "Ġaccident": 2652,
      "Ġapolog": 2653,
      "MAN": 2654,
      "UR": 2655,
      "ÃĴ": 2656,
      "Ġcow": 2657,
      "Ġpizza": 2658,
      "ĠSee": 2659,
      "unity": 2660,
      "Ġvis": 2661,
      "Ġcommercial": 2662,
      "ĠYork": 2663,
      "Ġtrans": 2664,
      "Ġdogs": 2665,
      "Does": 2666,
      "Ġstrong": 2667,
      "incipal": 2668,
      "rup": 2669,
      "upp": 2670,
      "Ġcam": 2671,
      "Ġeight": 2672,
      "Ġjump": 2673,
      "ĠCha": 2674,
      "ĠChan": 2675,
      "Ġdear": 2676,
      "Ġsaved": 2677,
      "ERS": 2678,
      "Ġweeks": 2679,
      "Ġattention": 2680,
      "GRUNTING": 2681,
      "iggity": 2682,
      "Eh": 2683,
      "Remember": 2684,
      "Those": 2685,
      "dge": 2686,
      "la": 2687,
      "was": 2688,
      "reci": 2689,
      "ities": 2690,
      "Ġpal": 2691,
      "arry": 2692,
      "Ġhung": 2693,
      "ĠWoods": 2694,
      "ica": 2695,
      "ili": 2696,
      "Ġlonger": 2697,
      "Ġfigured": 2698,
      "Ġcompletely": 2699,
      "Ġembarrass": 2700,
      "Laugh": 2701,
      "eep": 2702,
      "friend": 2703,
      "gan": 2704,
      "ky": 2705,
      "erve": 2706,
      "Ġfri": 2707,
      "ief": 2708,
      "Ġupset": 2709,
      "Ġspace": 2710,
      "ips": 2711,
      "Ġleaving": 2712,
      "Ġcontrol": 2713,
      "Ġhistory": 2714,
      "Fine": 2715,
      "Tell": 2716,
      "eral": 2717,
      "Ġdark": 2718,
      "Ġcorn": 2719,
      "ider": 2720,
      "ĠPl": 2721,
      "Ġsug": 2722,
      "Ġanywhere": 2723,
      "Ġcond": 2724,
      "Ġroad": 2725,
      "Ġcost": 2726,
      "Ġwriting": 2727,
      "ĠInternet": 2728,
      "Ġimpress": 2729,
      "Ġteach": 2730,
      "Ġwheel": 2731,
      "AG": 2732,
      "CR": 2733,
      "Give": 2734,
      "oint": 2735,
      "Ġtired": 2736,
      "rel": 2737,
      "Ġwet": 2738,
      "Ġluck": 2739,
      "Ġlucky": 2740,
      "Ġkit": 2741,
      "urb": 2742,
      "Ġsub": 2743,
      "ĠÃ¥": 2744,
      "orth": 2745,
      "Ġprof": 2746,
      "Ġprodu": 2747,
      "Ġputting": 2748,
      "ICE": 2749,
      "Ġbusy": 2750,
      "Ġdriving": 2751,
      "GROAN": 2752,
      "Ġfired": 2753,
      "Ġsweetie": 2754,
      "Ġstraight": 2755,
      "Ġfloor": 2756,
      "BLEEP": 2757,
      "After": 2758,
      "UM": 2759,
      "gn": 2760,
      "ray": 2761,
      "hael": 2762,
      "ety": 2763,
      "Ġones": 2764,
      "cked": 2765,
      "ĠCon": 2766,
      "rence": 2767,
      "Ġstanding": 2768,
      "Ġgrab": 2769,
      "IRE": 2770,
      "boy": 2771,
      "now": 2772,
      "Ġdirty": 2773,
      "oring": 2774,
      "ĠTw": 2775,
      "ĠMort": 2776,
      "ĠJim": 2777,
      "Ġdeep": 2778,
      "ement": 2779,
      "Ġhanging": 2780,
      "Ġpresent": 2781,
      "Ġbroke": 2782,
      "Ġhospital": 2783,
      "EEP": 2784,
      "ken": 2785,
      "uri": 2786,
      "Ġble": 2787,
      "Ġduring": 2788,
      "Ġcred": 2789,
      "Ġnamed": 2790,
      "Ġjack": 2791,
      "Ġlikes": 2792,
      "aus": 2793,
      "Ġshows": 2794,
      "Ġcharact": 2795,
      "ĠNothing": 2796,
      "ROW": 2797,
      "Ġclothes": 2798,
      "Sure": 2799,
      "SCREAM": 2800,
      "ald": 2801,
      "ient": 2802,
      "noon": 2803,
      "uce": 2804,
      "yle": 2805,
      "Ġyesterday": 2806,
      "Ġgas": 2807,
      "Ġnose": 2808,
      "Ġwrote": 2809,
      "ĠIsland": 2810,
      "Ġremind": 2811,
      "Ġmarry": 2812,
      "Ġrelax": 2813,
      "Ġrestaur": 2814,
      "Ġfellas": 2815,
      "Ġdefinitely": 2816,
      "ĠPatri": 2817,
      "ĠMayor": 2818,
      "ĠLAUGH": 2819,
      "11": 2820,
      "ef": 2821,
      "ury": 2822,
      "ĠInd": 2823,
      "Ġdanger": 2824,
      "Ġlist": 2825,
      "ards": 2826,
      "ĠÃİ": 2827,
      "ĠItal": 2828,
      "Ġscene": 2829,
      "Ġrealize": 2830,
      "Ġslow": 2831,
      "ATTER": 2832,
      "Ġbooks": 2833,
      "CE": 2834,
      "Nice": 2835,
      "sp": 2836,
      "Ġage": 2837,
      "Ġpract": 2838,
      "arter": 2839,
      "ĠTake": 2840,
      "Ġste": 2841,
      "Ġguest": 2842,
      "Ġscared": 2843,
      "Ġacting": 2844,
      "Ġafternoon": 2845,
      "Ġappreci": 2846,
      "Ġreading": 2847,
      "Ġexcited": 2848,
      "Ġsingle": 2849,
      "Ġbegin": 2850,
      "ĠJeff": 2851,
      "Ex": 2852,
      "gas": 2853,
      "huh": 2854,
      "ien": 2855,
      "Ġtough": 2856,
      "ero": 2857,
      "Ġban": 2858,
      "Ġbur": 2859,
      "Ġdry": 2860,
      "ĠGive": 2861,
      "Ġcancer": 2862,
      "Ġsuccess": 2863,
      "Ġbigger": 2864,
      "ighs": 2865,
      "ĠBlack": 2866,
      "Ow": 2867,
      "Ġground": 2868,
      "Ġfit": 2869,
      "ages": 2870,
      "Ġspot": 2871,
      "Ġspir": 2872,
      "Ġexper": 2873,
      "Ġshower": 2874,
      "Ġshare": 2875,
      "Ġballs": 2876,
      "RA": 2877,
      "cut": 2878,
      "lish": 2879,
      "view": 2880,
      "Ãŀ": 2881,
      "het": 2882,
      "Ġwine": 2883,
      "Ġgift": 2884,
      "Ġdrop": 2885,
      "orld": 2886,
      "Ġpublic": 2887,
      "ature": 2888,
      "ĠThen": 2889,
      "Ġsteal": 2890,
      "Ġseven": 2891,
      "Ġsol": 2892,
      "artment": 2893,
      "Ġrad": 2894,
      "Ġrather": 2895,
      "Ġmissed": 2896,
      "Everybody": 2897,
      "Shut": 2898,
      "Ġteacher": 2899,
      "Un": 2900,
      "hood": 2901,
      "year": 2902,
      "erman": 2903,
      "Ġborn": 2904,
      "Ġcaught": 2905,
      "Ġbear": 2906,
      "allow": 2907,
      "Ġate": 2908,
      "ational": 2909,
      "abb": 2910,
      "Ġshall": 2911,
      "Ġkitchen": 2912,
      "!\"": 2913,
      "Even": 2914,
      "OE": 2915,
      "Pl": 2916,
      "ror": 2917,
      "Ġwalking": 2918,
      "Ġcertain": 2919,
      "Ġprison": 2920,
      "Ġseat": 2921,
      "Ġsold": 2922,
      "Ġpoor": 2923,
      "ancing": 2924,
      "Ġpictures": 2925,
      "ĠHolly": 2926,
      "Ġaccept": 2927,
      "Ġpolice": 2928,
      "Ġfreak": 2929,
      "Ġfinger": 2930,
      "ĠLOIS": 2931,
      "KS": 2932,
      "Ne": 2933,
      "ges": 2934,
      "Ġ7": 2935,
      "Ġtre": 2936,
      "Ġcup": 2937,
      "Ġple": 2938,
      "Ġchurch": 2939,
      "Ġsupport": 2940,
      "EAT": 2941,
      "Sc": 2942,
      "oke": 2943,
      "uit": 2944,
      "Ġtree": 2945,
      "inal": 2946,
      "Ġdumb": 2947,
      "Ġknown": 2948,
      "ĠDav": 2949,
      "artman": 2950,
      "ists": 2951,
      "Ġran": 2952,
      "ĠKevin": 2953,
      "ĠVO": 2954,
      "ments": 2955,
      "Ġmayor": 2956,
      "ibly": 2957,
      "Ġcharge": 2958,
      "Ġepisode": 2959,
      "Cl": 2960,
      "aff": 2961,
      "book": 2962,
      "fully": 2963,
      "night": 2964,
      "Ġcute": 2965,
      "Ġpil": 2966,
      "Ġhop": 2967,
      "ppy": 2968,
      "ationship": 2969,
      "Ġblue": 2970,
      "Ġjokes": 2971,
      "rench": 2972,
      "Ġruined": 2973,
      "?|": 2974,
      "Hmm": 2975,
      "With": 2976,
      "pa": 2977,
      "ym": 2978,
      "Ġbat": 2979,
      "Ġboss": 2980,
      "otion": 2981,
      "ices": 2982,
      "Ġlie": 2983,
      "ĠDou": 2984,
      "Ġlooked": 2985,
      "Ġhello": 2986,
      "ĠUgh": 2987,
      "Ġbelong": 2988,
      "Ġfail": 2989,
      "Ġcouch": 2990,
      "ĠHoly": 2991,
      "Ġinstr": 2992,
      "ĠMichael": 2993,
      "Hang": 2994,
      "ÂĲ": 2995,
      "ĠGrand": 2996,
      "ĠDay": 2997,
      "ĠHave": 2998,
      "ules": 2999,
      "Ġrub": 3000,
      "Ġrob": 3001,
      "Ġ12": 3002,
      "ograp": 3003,
      "Isn": 3004,
      "reaming": 3005,
      "Ġacross": 3006,
      "aptain": 3007,
      "Ġmistake": 3008,
      "ECH": 3009,
      "back": 3010,
      "Ġgro": 3011,
      "Ġweight": 3012,
      "ĠListen": 3013,
      "ĠLord": 3014,
      "ives": 3015,
      "Ġsomewhere": 3016,
      "Ġlos": 3017,
      "Ġconvers": 3018,
      "Ġexplain": 3019,
      "bl": 3020,
      "bies": 3021,
      "pher": 3022,
      "Ġcur": 3023,
      "arch": 3024,
      "ĠWas": 3025,
      "eaking": 3026,
      "ĠJer": 3027,
      "Ġprove": 3028,
      "Ġblind": 3029,
      "Looks": 3030,
      "Ġhandle": 3031,
      "Ġchanged": 3032,
      "Ġteen": 3033,
      "Ġdisg": 3034,
      "Ġdisapp": 3035,
      "Ġrespect": 3036,
      "Ġinstead": 3037,
      "Ġdestroy": 3038,
      "Ġinstrument": 3039,
      "OK": 3040,
      "Ġround": 3041,
      "Ġtiny": 3042,
      "llen": 3043,
      "Ġpig": 3044,
      "ato": 3045,
      "ĠGold": 3046,
      "ĠJack": 3047,
      "Ġworried": 3048,
      "used": 3049,
      "ucket": 3050,
      "Ġagree": 3051,
      "ÃŃÃı": 3052,
      "weet": 3053,
      "Ġrelationship": 3054,
      "coho": 3055,
      "Ġpossible": 3056,
      "ĠANNOUNCER": 3057,
      "ND": 3058,
      "oot": 3059,
      "off": 3060,
      "vision": 3061,
      "Ġbill": 3062,
      "Ġbucks": 3063,
      "ism": 3064,
      "Ġfool": 3065,
      "rill": 3066,
      "ĠWith": 3067,
      "Ġjail": 3068,
      "iced": 3069,
      "Ġgotten": 3070,
      "ĠStar": 3071,
      "Ġloves": 3072,
      "Ġcrack": 3073,
      "ĠShow": 3074,
      "Which": 3075,
      "Ġbottom": 3076,
      "An": 3077,
      "house": 3078,
      "light": 3079,
      "line": 3080,
      "haps": 3081,
      "ĠST": 3082,
      "usting": 3083,
      "host": 3084,
      "Ġbutter": 3085,
      "Ġspent": 3086,
      "Ġmoving": 3087,
      "Ġweren": 3088,
      "Ġtrash": 3089,
      "Ġarm": 3090,
      "ĠClam": 3091,
      "Ġ30": 3092,
      "Ġ40": 3093,
      "Ġsandw": 3094,
      "Ġallowed": 3095,
      "HAL": 3096,
      "cess": 3097,
      "Ġcake": 3098,
      "pple": 3099,
      "IND": 3100,
      "ĠFine": 3101,
      "ulations": 3102,
      "Ġquit": 3103,
      "Ġmissing": 3104,
      "Ġprep": 3105,
      "undred": 3106,
      "Ġchicken": 3107,
      "Got": 3108,
      "PLA": 3109,
      "Se": 3110,
      "mon": 3111,
      "nock": 3112,
      "Ġwat": 3113,
      "Ġfresh": 3114,
      "Ġlow": 3115,
      "Ġpaid": 3116,
      "Ġopp": 3117,
      "ĠSm": 3118,
      "Ġforward": 3119,
      "ĠBill": 3120,
      "Ġstink": 3121,
      "ĠGot": 3122,
      "ific": 3123,
      "aret": 3124,
      "ĠEm": 3125,
      "Ġletter": 3126,
      "cia": 3127,
      "ipe": 3128,
      "Ġbread": 3129,
      "avy": 3130,
      "Ġbrain": 3131,
      "Ġregular": 3132,
      "Ġdrugs": 3133,
      "ilarious": 3134,
      "pherd": 3135,
      "Ho": 3136,
      "da": 3137,
      "gr": 3138,
      "hip": 3139,
      "reak": 3140,
      "Ġsake": 3141,
      "Ġmir": 3142,
      "Ġdick": 3143,
      "Ġhook": 3144,
      "Ġking": 3145,
      "cking": 3146,
      "ĠPewterschmidt": 3147,
      "ĠLe": 3148,
      "ĠDan": 3149,
      "ility": 3150,
      "Ġsuit": 3151,
      "olks": 3152,
      "Ġcomedy": 3153,
      "because": 3154,
      "Ġprog": 3155,
      "CHEERING": 3156,
      "Ġaccount": 3157,
      "Ġsurprise": 3158,
      "Ġrestaurant": 3159,
      "Ġappreciate": 3160,
      "Ġspirit": 3161,
      "ĠHollywood": 3162,
      "ĠVOICE": 3163,
      "'.": 3164,
      "First": 3165,
      "Sp": 3166,
      "Sir": 3167,
      "good": 3168,
      "Ġwarm": 3169,
      "Ġsea": 3170,
      "Ġhilarious": 3171,
      "ĠWould": 3172,
      "ĠSon": 3173,
      "icious": 3174,
      "Ġnear": 3175,
      "ela": 3176,
      "ession": 3177,
      "ĠRob": 3178,
      "Ġneeded": 3179,
      "ploy": 3180,
      "they": 3181,
      "Ġarrest": 3182,
      "Ġswear": 3183,
      "Ġfootball": 3184,
      "Ġextra": 3185,
      "Ġinstrumental": 3186,
      "!|": 3187,
      "AII": 3188,
      "Mm": 3189,
      "Say": 3190,
      "Ġtour": 3191,
      "Ġwake": 3192,
      "Ġma": 3193,
      "Ġmod": 3194,
      "Ġgiant": 3195,
      "Ġhol": 3196,
      "ĠBab": 3197,
      "ĠMAN": 3198,
      "Ġneck": 3199,
      "ĠHouse": 3200,
      "Ġupstairs": 3201,
      "ĠExcuse": 3202,
      "Ġblock": 3203,
      "Ġquiet": 3204,
      "ĠCHATTER": 3205,
      "ENT": 3206,
      "Ġlaughing": 3207,
      "Ġangry": 3208,
      "hin": 3209,
      "some": 3210,
      "xic": 3211,
      "Ġi": 3212,
      "Ġty": 3213,
      "Ġsil": 3214,
      "Ġmas": 3215,
      "Ġfant": 3216,
      "atic": 3217,
      "Ġind": 3218,
      "Ġstation": 3219,
      "oday": 3220,
      "ongrat": 3221,
      "ĠHelp": 3222,
      "Ġtrain": 3223,
      "Ġpriv": 3224,
      "board": 3225,
      "Ġmilk": 3226,
      "Ġtickets": 3227,
      "ĠSwanson": 3228,
      "ROWD": 3229,
      "His": 3230,
      "nam": 3231,
      "Ġmall": 3232,
      "Ġstate": 3233,
      "ĠPaul": 3234,
      "Ġalcoho": 3235,
      "Nobody": 3236,
      "acy": 3237,
      "Ġmonkey": 3238,
      "Ġsitu": 3239,
      "Ġearly": 3240,
      "Ġcredit": 3241,
      "Ġconversation": 3242,
      "Am": 3243,
      "VE": 3244,
      "giving": 3245,
      "Ġtape": 3246,
      "stem": 3247,
      "Ġcover": 3248,
      "Ġcheese": 3249,
      "Ġhorrible": 3250,
      "Ġobv": 3251,
      "Ġfamous": 3252,
      "Com": 3253,
      "Mmm": 3254,
      "lier": 3255,
      "uice": 3256,
      "yl": 3257,
      "Ġtaste": 3258,
      "Ġav": 3259,
      "Ġfuck": 3260,
      "Ġpet": 3261,
      "ĠWorld": 3262,
      "vern": 3263,
      "oda": 3264,
      "andy": 3265,
      "Ġexcept": 3266,
      "ĠYep": 3267,
      "ĠKing": 3268,
      "Ġplayed": 3269,
      "Ġ11": 3270,
      "ĠMommy": 3271,
      "ĠDoes": 3272,
      "ĠShepherd": 3273,
      "ĠCHIM": 3274,
      "Ġskin": 3275,
      "Ġmagic": 3276,
      "ounce": 3277,
      "Ġpopular": 3278,
      "ĠWilliam": 3279,
      "Ġhonor": 3280,
      "Ġvacation": 3281,
      "IFF": 3282,
      "Per": 3283,
      "ca": 3284,
      "down": 3285,
      "fer": 3286,
      "gers": 3287,
      "Ġdare": 3288,
      "Ġcir": 3289,
      "Ġcast": 3290,
      "vest": 3291,
      "ĠSup": 3292,
      "ĠBen": 3293,
      "imb": 3294,
      "hode": 3295,
      "robably": 3296,
      "ĠHold": 3297,
      "Ġsexy": 3298,
      "place": 3299,
      "Ġ10": 3300,
      "Ġ18": 3301,
      "Ġattack": 3302,
      "Ġholding": 3303,
      "arring": 3304,
      "Ġbottle": 3305,
      "ĠTHE": 3306,
      "Ġphoto": 3307,
      "People": 3308,
      "Tom": 3309,
      "away": 3310,
      "Ãĥ": 3311,
      "Ġsle": 3312,
      "Ġcross": 3313,
      "Ġfake": 3314,
      "omb": 3315,
      "Ġhundred": 3316,
      "ĠBo": 3317,
      "ffic": 3318,
      "itten": 3319,
      "ians": 3320,
      "ĠGuys": 3321,
      "Ġesc": 3322,
      "laughs": 3323,
      "Ġbaseball": 3324,
      "GROANS": 3325,
      "HALES": 3326,
      "mmer": 3327,
      "heart": 3328,
      "Ġcap": 3329,
      "Ġlar": 3330,
      "Ġpush": 3331,
      "ĠWar": 3332,
      "ĠSl": 3333,
      "ĠPh": 3334,
      "ĠLove": 3335,
      "roll": 3336,
      "ĠHigh": 3337,
      "une": 3338,
      "elax": 3339,
      "ĠFox": 3340,
      "ĠÃĳ": 3341,
      "ĠEx": 3342,
      "ousand": 3343,
      "ÃŃÃľÃľ": 3344,
      "Ġcontin": 3345,
      "Ġ50": 3346,
      "Also": 3347,
      "ÃĵÃĬ": 3348,
      "Ġstole": 3349,
      "Ġtelevision": 3350,
      "Besides": 3351,
      "Could": 3352,
      "Will": 3353,
      "ker": 3354,
      "vin": 3355,
      "ĠIook": 3356,
      "Ġfr": 3357,
      "Ġnames": 3358,
      "Ġpunch": 3359,
      "Ġiss": 3360,
      "ĠTwo": 3361,
      "ĠActually": 3362,
      "ĠRhode": 3363,
      "Ġcrying": 3364,
      "Ġswim": 3365,
      "Ġlistening": 3366,
      "LAUGHING": 3367,
      "Ġpregn": 3368,
      "CREECH": 3369,
      "box": 3370,
      "ĠRINGS": 3371,
      "ĠGeorge": 3372,
      "Ġimagine": 3373,
      "ĠDavid": 3374,
      "MIRE": 3375,
      "Tr": 3376,
      "cing": 3377,
      "under": 3378,
      "reg": 3379,
      "Ġdating": 3380,
      "Ġemp": 3381,
      "ops": 3382,
      "udge": 3383,
      "Ġboyfriend": 3384,
      "dered": 3385,
      "ctions": 3386,
      "Ġproblems": 3387,
      "QUAG": 3388,
      "ĠAdam": 3389,
      "Sometimes": 3390,
      "reatest": 3391,
      "Ġhungry": 3392,
      "ongratulations": 3393,
      "QUAGMIRE": 3394,
      "Actually": 3395,
      "VER": 3396,
      "iod": 3397,
      "Ġnaked": 3398,
      "Ġthird": 3399,
      "Ġhide": 3400,
      "ĠTri": 3401,
      "ĠNever": 3402,
      "ĠON": 3403,
      "Ġrules": 3404,
      "Ġloved": 3405,
      "play": 3406,
      "Ġgiven": 3407,
      "rowd": 3408,
      "Ġchamp": 3409,
      "Ġwondering": 3410,
      "coming": 3411,
      "Ġmurder": 3412,
      "fortable": 3413,
      "ĠChannel": 3414,
      "10": 3415,
      "50": 3416,
      "yer": 3417,
      "Ġfancy": 3418,
      "Ġnone": 3419,
      "Ġpump": 3420,
      "Ġhost": 3421,
      "ĠWH": 3422,
      "ĠSim": 3423,
      "ĠCity": 3424,
      "ĠMart": 3425,
      "Ġwhose": 3426,
      "ender": 3427,
      "ems": 3428,
      "resident": 3429,
      "Ġsexual": 3430,
      "Ġrealized": 3431,
      "Ġtrack": 3432,
      "Ġseconds": 3433,
      "Ġterri": 3434,
      "Ġdeserve": 3435,
      "ĠÃĪÃĩ": 3436,
      "Ġmessage": 3437,
      "Ġclearly": 3438,
      "Ġdollars": 3439,
      "Ġdraw": 3440,
      "gly": 3441,
      "ka": 3442,
      "pes": 3443,
      "uc": 3444,
      "wear": 3445,
      "ino": 3446,
      "ishing": 3447,
      "Ġcell": 3448,
      "Ġcig": 3449,
      "Ġcab": 3450,
      "Ġpill": 3451,
      "Ġpage": 3452,
      "Ġpair": 3453,
      "oman": 3454,
      "Ġthrew": 3455,
      "ĠSund": 3456,
      "ĠBar": 3457,
      "chn": 3458,
      "ĠLuke": 3459,
      "ĠFri": 3460,
      "ĠUS": 3461,
      "Ġcares": 3462,
      "ĠNews": 3463,
      "Ġsmoke": 3464,
      "aturday": 3465,
      "Ġcalm": 3466,
      "Ġsports": 3467,
      "Ġradio": 3468,
      "ĠJerome": 3469,
      "Bl": 3470,
      "CROWD": 3471,
      "Dear": 3472,
      "OW": 3473,
      "Ġbang": 3474,
      "Ġcash": 3475,
      "ĠGu": 3476,
      "rodu": 3477,
      "ilt": 3478,
      "Ġusually": 3479,
      "ĠRock": 3480,
      "ĠStreet": 3481,
      "ĠEh": 3482,
      "cially": 3483,
      "Ġhelping": 3484,
      "Ġteeth": 3485,
      "gery": 3486,
      "Ġgrown": 3487,
      "Ġlately": 3488,
      "Ġrespons": 3489,
      "Ġdangerous": 3490,
      "DOOR": 3491,
      "EX": 3492,
      "May": 3493,
      "sighs": 3494,
      "ti": 3495,
      "Ġtie": 3496,
      "rer": 3497,
      "rey": 3498,
      "Ġbother": 3499,
      "Ġfur": 3500,
      "Ġpsy": 3501,
      "Ġthousand": 3502,
      "ara": 3503,
      "Ġhy": 3504,
      "Ġeas": 3505,
      "ĠSTEWIE": 3506,
      "amb": 3507,
      "Ġnote": 3508,
      "CHRIS": 3509,
      "ennis": 3510,
      "Ġmonster": 3511,
      "ĠBrown": 3512,
      "Ġsurgery": 3513,
      "ountain": 3514,
      "Ġsystem": 3515,
      "Ġsuggest": 3516,
      "EE": 3517,
      "Hartman": 3518,
      "PPLA": 3519,
      "Time": 3520,
      "UT": 3521,
      "Yep": 3522,
      "bout": 3523,
      "lt": 3524,
      "Ãİ": 3525,
      "Ġ8": 3526,
      "Ġwow": 3527,
      "Ġbank": 3528,
      "itter": 3529,
      "Ġdying": 3530,
      "Ġfield": 3531,
      "Ġfolks": 3532,
      "Ġlay": 3533,
      "ries": 3534,
      "Ġinvent": 3535,
      "Ġmeat": 3536,
      "iding": 3537,
      "cker": 3538,
      "Ġstories": 3539,
      "aged": 3540,
      "itty": 3541,
      "Ġmoved": 3542,
      "Ġturns": 3543,
      "ĠÂį": 3544,
      "Ġearlier": 3545,
      "Ġforgive": 3546,
      "Ġstopped": 3547,
      "Ġeggs": 3548,
      "ĠDoug": 3549,
      "By": 3550,
      "BRIAN": 3551,
      "Ġaut": 3552,
      "ern": 3553,
      "Ġgreatest": 3554,
      "Ġlab": 3555,
      "ĠSaturday": 3556,
      "Ġstairs": 3557,
      "Ġseason": 3558,
      "antic": 3559,
      "Ġbutton": 3560,
      "ĠOl": 3561,
      "ĠFather": 3562,
      "Ġplaces": 3563,
      "Ġtalent": 3564,
      "Ġtruck": 3565,
      "Ġkey": 3566,
      "Ġbrew": 3567,
      "Ġdriver": 3568,
      "Ġpresident": 3569,
      "Ġemploy": 3570,
      "Ġinvited": 3571,
      "Ġowe": 3572,
      "(\"": 3573,
      "Ch": 3574,
      "Cleveland": 3575,
      "RAT": 3576,
      "bel": 3577,
      "cus": 3578,
      "gie": 3579,
      "tin": 3580,
      "Ġris": 3581,
      "uter": 3582,
      "ĠSir": 3583,
      "Ġnotice": 3584,
      "enty": 3585,
      "ager": 3586,
      "ushed": 3587,
      "osh": 3588,
      "Ġeverywhere": 3589,
      "Ġoffic": 3590,
      "iane": 3591,
      "Ġhearing": 3592,
      "Ġopening": 3593,
      "bsolutely": 3594,
      "ĠThanksgiving": 3595,
      "Ġhandsome": 3596,
      "Ġcharacter": 3597,
      "30": 3598,
      "BELL": 3599,
      "CO": 3600,
      "den": 3601,
      "gu": 3602,
      "she": 3603,
      "there": 3604,
      "Ġwild": 3605,
      "Ġoper": 3606,
      "ased": 3607,
      "ĠAng": 3608,
      "iest": 3609,
      "ĠDis": 3610,
      "illian": 3611,
      "INCT": 3612,
      "ured": 3613,
      "Ġfeed": 3614,
      "Ġkilling": 3615,
      "Ġperiod": 3616,
      "Ġfinished": 3617,
      "Ġexciting": 3618,
      "Ġpersonal": 3619,
      "arently": 3620,
      "Ġpicked": 3621,
      "ĠAND": 3622,
      "ISTINCT": 3623,
      "ĠFrank": 3624,
      "colate": 3625,
      "ĠItalian": 3626,
      "Ġsituation": 3627,
      "20": 3628,
      "Her": 3629,
      "Hold": 3630,
      "Two": 3631,
      "af": 3632,
      "mb": 3633,
      "Ġide": 3634,
      "Ġtub": 3635,
      "Ġdude": 3636,
      "Ġpea": 3637,
      "stit": 3638,
      "enny": 3639,
      "ĠWhe": 3640,
      "Ġest": 3641,
      "Ġgovern": 3642,
      "ults": 3643,
      "ANTING": 3644,
      "Ġdivor": 3645,
      "USE": 3646,
      "Ġservice": 3647,
      "ĠChin": 3648,
      "NOCK": 3649,
      "Ġcommunity": 3650,
      "SNIFF": 3651,
      "Ġprogram": 3652,
      "Ġpregnant": 3653,
      "Big": 3654,
      "GU": 3655,
      "SHO": 3656,
      "gain": 3657,
      "ivers": 3658,
      "Ġir": 3659,
      "rect": 3660,
      "Ġwood": 3661,
      "Ġwaste": 3662,
      "Ġcent": 3663,
      "Ġpock": 3664,
      "Ġinform": 3665,
      "Ġur": 3666,
      "Ġev": 3667,
      "ĠSay": 3668,
      "ĠSCREAM": 3669,
      "ustom": 3670,
      "ĠGR": 3671,
      "ĠGAS": 3672,
      "Ġbabies": 3673,
      "ĠOut": 3674,
      "ĠFl": 3675,
      "ĠFive": 3676,
      "ĠFrench": 3677,
      "Ġplans": 3678,
      "Ġexam": 3679,
      "Ġhasn": 3680,
      "cious": 3681,
      "Ġgives": 3682,
      "Ġ15": 3683,
      "Ġlots": 3684,
      "Ġcareful": 3685,
      "ugg": 3686,
      "Ġcourt": 3687,
      "ĠBrit": 3688,
      "ĠInst": 3689,
      "Ġattract": 3690,
      "Ġbroken": 3691,
      "Ġlesson": 3692,
      "Ġelect": 3693,
      "Ġbuilding": 3694,
      "rupt": 3695,
      "Ġsandwich": 3696,
      "BB": 3697,
      "cast": 3698,
      "don": 3699,
      "gue": 3700,
      "mand": 3701,
      "Ġill": 3702,
      "Ġtap": 3703,
      "inally": 3704,
      "Ġnine": 3705,
      "Ġeff": 3706,
      "ĠSCREECH": 3707,
      "Ġform": 3708,
      "Ġliked": 3709,
      "rog": 3710,
      "rying": 3711,
      "ĠHar": 3712,
      "Ġnoise": 3713,
      "ilty": 3714,
      "Ġasleep": 3715,
      "ĠOur": 3716,
      "Ġproper": 3717,
      "Ġchoose": 3718,
      "Ġbiggest": 3719,
      "ÃĩÃŃ": 3720,
      "Ġrac": 3721,
      "LOW": 3722,
      "Ġsongs": 3723,
      "Ġspending": 3724,
      "IRES": 3725,
      "Ġsmoking": 3726,
      "Ġafford": 3727,
      "Ġincred": 3728,
      "KNOCK": 3729,
      "LIC": 3730,
      "ik": 3731,
      "real": 3732,
      "Ġsci": 3733,
      "Ġtoy": 3734,
      "Ġpoo": 3735,
      "Ġje": 3736,
      "Ġrequ": 3737,
      "ĠCool": 3738,
      "ĠMary": 3739,
      "rov": 3740,
      "Ġview": 3741,
      "Ġspl": 3742,
      "ĠEd": 3743,
      "Ġways": 3744,
      "Ġcalls": 3745,
      "ogn": 3746,
      "LAUGHTER": 3747,
      "Ġcops": 3748,
      "Check": 3749,
      "PPLAUSE": 3750,
      "RING": 3751,
      "bell": 3752,
      "reed": 3753,
      "Ġsat": 3754,
      "Ġcre": 3755,
      "Ġfem": 3756,
      "right": 3757,
      "Ġhall": 3758,
      "ĠPete": 3759,
      "ĠJul": 3760,
      "oret": 3761,
      "Ġsummer": 3762,
      "ĠStep": 3763,
      "Ġvict": 3764,
      "Ġmoon": 3765,
      "Ġtwice": 3766,
      "pecially": 3767,
      "Ġadv": 3768,
      "Ġadult": 3769,
      "Ġbreast": 3770,
      "Ġshar": 3771,
      "Ġspeed": 3772,
      "Everything": 3773,
      "Ġbags": 3774,
      "Ġsmells": 3775,
      "ĠEverybody": 3776,
      "Ġparking": 3777,
      "ĠÃĳÃ¦": 3778,
      "ĠFriday": 3779,
      "15": 3780,
      "90": 3781,
      "Gl": 3782,
      "IL": 3783,
      "Put": 3784,
      "TV": 3785,
      "YING": 3786,
      "ees": 3787,
      "hoo": 3788,
      "uch": 3789,
      "xual": 3790,
      "Ġgym": 3791,
      "Ġnur": 3792,
      "Ġnap": 3793,
      "ĠPar": 3794,
      "irl": 3795,
      "ĠHmm": 3796,
      "Ġbare": 3797,
      "Ġletting": 3798,
      "UND": 3799,
      "Ġraise": 3800,
      "Ġkeeps": 3801,
      "azz": 3802,
      "Ġtrick": 3803,
      "Ġsleeping": 3804,
      "Ġairport": 3805,
      "ossible": 3806,
      "while": 3807,
      "Ġcloset": 3808,
      "ervous": 3809,
      "Ġcamera": 3810,
      "Ġexperience": 3811,
      "Ġcertainly": 3812,
      "Ġpleasure": 3813,
      "Yay": 3814,
      "ius": 3815,
      "look": 3816,
      "orter": 3817,
      "Ġlau": 3818,
      "Ġnuts": 3819,
      "ĠCra": 3820,
      "ĠMike": 3821,
      "ĠPeople": 3822,
      "irts": 3823,
      "ently": 3824,
      "urity": 3825,
      "Ġwritten": 3826,
      "ĠGriffins": 3827,
      "Ġactor": 3828,
      "Ġactiv": 3829,
      "Ġtalked": 3830,
      "awa": 3831,
      "reams": 3832,
      "Ġsweat": 3833,
      "oved": 3834,
      "Nothing": 3835,
      "Ġmagaz": 3836,
      "Someone": 3837,
      "Ġfilm": 3838,
      "Ġcolor": 3839,
      "ĠPrincipal": 3840,
      "Ġabsolutely": 3841,
      "Next": 3842,
      "Ġwatched": 3843,
      "ĠSunday": 3844,
      "Ġpsych": 3845,
      "aa": 3846,
      "aven": 3847,
      "got": 3848,
      "»¿": 3849,
      "ÃĮ": 3850,
      "ï»¿": 3851,
      "Ġyard": 3852,
      "ĠIet": 3853,
      "Ġbum": 3854,
      "Ġgang": 3855,
      "ites": 3856,
      "Ġheavy": 3857,
      "ĠME": 3858,
      "ĠFace": 3859,
      "Ġsomehow": 3860,
      "ĠSte": 3861,
      "ĠStew": 3862,
      "omething": 3863,
      "Ġplays": 3864,
      "Ġunderwear": 3865,
      "Ġrace": 3866,
      "ĠÂ¿": 3867,
      "Ġturkey": 3868,
      "gasps": 3869,
      "Ġpilot": 3870,
      "Ġbrewery": 3871,
      "Ġideas": 3872,
      "From": 3873,
      "Last": 3874,
      "Turn": 3875,
      "ZZ": 3876,
      "ek": 3877,
      "field": 3878,
      "ping": 3879,
      "vy": 3880,
      "ĠIN": 3881,
      "ingo": 3882,
      "Ġdig": 3883,
      "Ġcart": 3884,
      "Ġpun": 3885,
      "Ġhom": 3886,
      "Ġbell": 3887,
      "ĠPo": 3888,
      "ĠLa": 3889,
      "Ġnoticed": 3890,
      "ĠHer": 3891,
      "unting": 3892,
      "ĠJillian": 3893,
      "arty": 3894,
      "Ġvol": 3895,
      "Ġroof": 3896,
      "Ġevent": 3897,
      "ÃŃÃ£": 3898,
      "Ġbrand": 3899,
      "awt": 3900,
      "ĠCarol": 3901,
      "Ġthrowing": 3902,
      "Ġsinging": 3903,
      "wards": 3904,
      "ealous": 3905,
      "Ġlawn": 3906,
      "Ġmedical": 3907,
      "ĠSomebody": 3908,
      "ĠCHIMES": 3909,
      "TIRES": 3910,
      "aI": 3911,
      "bow": 3912,
      "came": 3913,
      "Ġsus": 3914,
      "Ġsens": 3915,
      "Ġmot": 3916,
      "Ġlying": 3917,
      "Ġugly": 3918,
      "ĠSH": 3919,
      "Ġjour": 3920,
      "ĠPut": 3921,
      "Ġgod": 3922,
      "INE": 3923,
      "ĠFrom": 3924,
      "ended": 3925,
      "Ġmarket": 3926,
      "Ġrain": 3927,
      "ĠÃĩÃŃÃ¤": 3928,
      "Ġmiles": 3929,
      "Ġboobs": 3930,
      "ĠRobert": 3931,
      "Ġdressed": 3932,
      "Ġinteresting": 3933,
      "awtucket": 3934,
      "12": 3935,
      "Geez": 3936,
      "TLY": 3937,
      "Very": 3938,
      "father": 3939,
      "par": 3940,
      "Ã©": 3941,
      "Ġer": 3942,
      "Ġsilly": 3943,
      "Ġdirt": 3944,
      "Ġlic": 3945,
      "vered": 3946,
      "Ġnervous": 3947,
      "Ġpupp": 3948,
      "oos": 3949,
      "Ġevil": 3950,
      "ĠThose": 3951,
      "icy": 3952,
      "Ġrece": 3953,
      "ĠBird": 3954,
      "Ġstat": 3955,
      "ĠMag": 3956,
      "ĠMark": 3957,
      "Ġgold": 3958,
      "ĠDiane": 3959,
      "Ġsoft": 3960,
      "ĠHang": 3961,
      "Ġship": 3962,
      "Ġwhore": 3963,
      "ached": 3964,
      "pens": 3965,
      "ĠPLAYS": 3966,
      "Ġbringing": 3967,
      "Ġrecogn": 3968,
      "ival": 3969,
      "Ġpolit": 3970,
      "Ġdollar": 3971,
      "iverse": 3972,
      "Ġglasses": 3973,
      "MEG": 3974,
      "ĠEnglish": 3975,
      "Ġvisit": 3976,
      "Ġdisgusting": 3977,
      "Ġlarge": 3978,
      "Ġgovernment": 3979,
      "SH": 3980,
      "ule": 3981,
      "ube": 3982,
      "inn": 3983,
      "rek": 3984,
      "Ġghost": 3985,
      "icle": 3986,
      "ĠMo": 3987,
      "Ġwash": 3988,
      "urt": 3989,
      "urance": 3990,
      "ĠHit": 3991,
      "Ġvag": 3992,
      "ĠÃĶ": 3993,
      "Ġscr": 3994,
      "Ġfeelings": 3995,
      "Ġhelped": 3996,
      "Ġ100": 3997,
      "tact": 3998,
      "Ġadmit": 3999,
      "Ġcoun": 4000,
      "ption": 4001,
      "Ġinsane": 4002,
      "Ġhotel": 4003,
      "ĠDeath": 4004,
      "Ġprote": 4005,
      "Ġfighting": 4006,
      "Ġapartment": 4007,
      "ĠEveryone": 4008,
      "OMAN": 4009,
      "Ġselling": 4010,
      "Ġcrime": 4011,
      "ĠRINGING": 4012,
      "En": 4013,
      "Never": 4014,
      "new": 4015,
      "Ġtax": 4016,
      "hew": 4017,
      "Ġment": 4018,
      "Ġbi": 4019,
      "Ġbon": 4020,
      "Ġdancing": 4021,
      "Ġtooth": 4022,
      "Ġliter": 4023,
      "owers": 4024,
      "Ġmeal": 4025,
      "ĠWelcome": 4026,
      "ĠTony": 4027,
      "ching": 4028,
      "ctive": 4029,
      "ĠNice": 4030,
      "agram": 4031,
      "ĠEarth": 4032,
      "Ġorig": 4033,
      "ĠYay": 4034,
      "Ġarms": 4035,
      "Ġmostly": 4036,
      "Ġrelig": 4037,
      "Should": 4038,
      "ĠAsian": 4039,
      "Ġinterested": 4040,
      "Ġcreated": 4041,
      "Ġbreath": 4042,
      "ĠGrandpa": 4043,
      "Coming": 4044,
      "Ġempty": 4045,
      "ĠChinese": 4046,
      "IG": 4047,
      "Too": 4048,
      "ki": 4049,
      "uro": 4050,
      "Ġtight": 4051,
      "Ġmass": 4052,
      "Ġbite": 4053,
      "aning": 4054,
      "Ġfle": 4055,
      "Ġnet": 4056,
      "Ġpan": 4057,
      "Ġodd": 4058,
      "ĠTell": 4059,
      "Ġjuice": 4060,
      "Ġrent": 4061,
      "Ġsearch": 4062,
      "ĠLea": 4063,
      "ified": 4064,
      "ĠRic": 4065,
      "Ġdevil": 4066,
      "aint": 4067,
      "ĠÃĵ": 4068,
      "Ġoffer": 4069,
      "hys": 4070,
      "Ġflight": 4071,
      "Ġshop": 4072,
      "Ġsettle": 4073,
      "Ġpromised": 4074,
      "Ġdelicious": 4075,
      "venture": 4076,
      "Ġcelebrate": 4077,
      "ĠEngland": 4078,
      "INDISTINCT": 4079,
      "Ġalcohol": 4080,
      "Gu": 4081,
      "Re": 4082,
      "Rupert": 4083,
      "SE": 4084,
      "SO": 4085,
      "lin": 4086,
      "mes": 4087,
      "than": 4088,
      "uel": 4089,
      "Ġsize": 4090,
      "Ġbike": 4091,
      "Ġgar": 4092,
      "Ġnatur": 4093,
      "Ġphys": 4094,
      "Ġobs": 4095,
      "aring": 4096,
      "ency": 4097,
      "ida": 4098,
      "ĠSQU": 4099,
      "ada": 4100,
      "ads": 4101,
      "Ġjealous": 4102,
      "Ġreach": 4103,
      "Ġlif": 4104,
      "elly": 4105,
      "ĠConnie": 4106,
      "ĠMac": 4107,
      "rage": 4108,
      "unny": 4109,
      "iling": 4110,
      "Ġourselves": 4111,
      "Ġwhenever": 4112,
      "Ġconc": 4113,
      "Ġconne": 4114,
      "though": 4115,
      "retty": 4116,
      "ÃĩÃ£": 4117,
      "overed": 4118,
      "Ġstaying": 4119,
      "ĠCHEERING": 4120,
      "ĠMexic": 4121,
      "Ġimpossible": 4122,
      "Ġlights": 4123,
      "Ġintrodu": 4124,
      "ĠNeil": 4125,
      "Ġhealthy": 4126,
      "Ġscrewed": 4127,
      "Ġneighborhood": 4128,
      "Holy": 4129,
      "CLE": 4130,
      "Wha": 4131,
      "cond": 4132,
      "ĠX": 4133,
      "Ġsink": 4134,
      "hand": 4135,
      "Ġgreen": 4136,
      "Ġcous": 4137,
      "ste": 4138,
      "Ġheat": 4139,
      "lect": 4140,
      "Ġbeach": 4141,
      "Ġonto": 4142,
      "alent": 4143,
      "ĠTy": 4144,
      "ĠToo": 4145,
      "ĠBilly": 4146,
      "Ġstom": 4147,
      "ellent": 4148,
      "iment": 4149,
      "ĠPri": 4150,
      "Ġcannot": 4151,
      "ĠNight": 4152,
      "Ġspin": 4153,
      "aren": 4154,
      "que": 4155,
      "ĠThese": 4156,
      "ciety": 4157,
      "LAND": 4158,
      "Ġwriter": 4159,
      "Ġkeeping": 4160,
      "Ġbreaking": 4161,
      "derer": 4162,
      "ĠÂģ": 4163,
      "Ġbuilt": 4164,
      "Ġcards": 4165,
      "Ã¡ÃŃ": 4166,
      "ruit": 4167,
      "Ġkicked": 4168,
      "Ġpossibly": 4169,
      "Something": 4170,
      "Ġhoping": 4171,
      "ĠiP": 4172,
      "ĠGRUN": 4173,
      "JOE": 4174,
      "Kids": 4175,
      "bt": 4176,
      "every": 4177,
      "gin": 4178,
      "kward": 4179,
      "Ġsoda": 4180,
      "has": 4181,
      "erc": 4182,
      "ergy": 4183,
      "itz": 4184,
      "Ġnail": 4185,
      "Ġnumb": 4186,
      "str": 4187,
      "ution": 4188,
      "ĠWha": 4189,
      "ĠTim": 4190,
      "ades": 4191,
      "ĠMm": 4192,
      "ĠLittle": 4193,
      "cean": 4194,
      "ĠDog": 4195,
      "ĠRuss": 4196,
      "Ġvir": 4197,
      "ires": 4198,
      "Ġlovely": 4199,
      "Ġbelt": 4200,
      "Ġeng": 4201,
      "iano": 4202,
      "Ġuniverse": 4203,
      "onsense": 4204,
      "Ġarri": 4205,
      "Ġperfor": 4206,
      "Ġfinal": 4207,
      "Ġdiaper": 4208,
      "Ġfriendship": 4209,
      "Ġdrinks": 4210,
      "Ġcomputer": 4211,
      "Only": 4212,
      "Ġaddress": 4213,
      "Ġdistract": 4214,
      "Ġsimple": 4215,
      "Ġhealth": 4216,
      "SCREAMS": 4217,
      "Ġpocket": 4218,
      "18": 4219,
      "AW": 4220,
      "Dr": 4221,
      "Honey": 4222,
      "IGH": 4223,
      "Keep": 4224,
      "Watch": 4225,
      "miss": 4226,
      "wise": 4227,
      "yan": 4228,
      "ÃĿ": 4229,
      "Ġtem": 4230,
      "Ġtaught": 4231,
      "Ġdea": 4232,
      "omen": 4233,
      "Ġeh": 4234,
      "vert": 4235,
      "imate": 4236,
      "ĠMus": 4237,
      "ĠPresident": 4238,
      "ĠDOOR": 4239,
      "tery": 4240,
      "iled": 4241,
      "ĠFarm": 4242,
      "Ġconst": 4243,
      "Ġtheme": 4244,
      "aced": 4245,
      "Ġcheer": 4246,
      "Ġkept": 4247,
      "ĠVery": 4248,
      "Ġtechn": 4249,
      "Ġturning": 4250,
      "Ġinsurance": 4251,
      "ĠBrady": 4252,
      "ivia": 4253,
      "Ġchocolate": 4254,
      "Ġaccent": 4255,
      "Ġsky": 4256,
      "Ġpaying": 4257,
      "Ġsweetheart": 4258,
      "Ġhurts": 4259,
      "Ġpassed": 4260,
      "Daddy": 4261,
      "Ġruin": 4262,
      "Ġlawyer": 4263,
      "Ġhumili": 4264,
      "chair": 4265,
      "Ġgener": 4266,
      "Ġdropped": 4267,
      "IDS": 4268,
      "Ġanimals": 4269,
      "Ġaudience": 4270,
      "CRYING": 4271,
      "Plus": 4272,
      "Ġloser": 4273,
      "Ġholid": 4274,
      "Ġobviously": 4275,
      "ĠWilliams": 4276,
      "Ġcigaret": 4277,
      "Ġpeace": 4278,
      "Car": 4279,
      "Sha": 4280,
      "bag": 4281,
      "cin": 4282,
      "well": 4283,
      "Ġrom": 4284,
      "into": 4285,
      "Ġmor": 4286,
      "Ġmatch": 4287,
      "ita": 4288,
      "omin": 4289,
      "Ġbecame": 4290,
      "ĠWay": 4291,
      "ĠTra": 4292,
      "Ġlied": 4293,
      "ĠBet": 4294,
      "Ġstars": 4295,
      "ĠCat": 4296,
      "ĠAgh": 4297,
      "ĠLee": 4298,
      "Ġgolf": 4299,
      "ille": 4300,
      "ĠHappy": 4301,
      "ĠÃŃ": 4302,
      "Ġclosed": 4303,
      "reeze": 4304,
      "Ġscreen": 4305,
      "Ġcovered": 4306,
      "Ġcars": 4307,
      "Ġcompet": 4308,
      "Ġdesk": 4309,
      "Didn": 4310,
      "Somebody": 4311,
      "alloween": 4312,
      "Ġprivate": 4313,
      "ĠInstagram": 4314,
      "Happy": 4315,
      "KE": 4316,
      "Was": 4317,
      "ipped": 4318,
      "mare": 4319,
      "pr": 4320,
      "uly": 4321,
      "hea": 4322,
      "Ġborrow": 4323,
      "Ġtor": 4324,
      "Ġpitch": 4325,
      "arn": 4326,
      "Ġinvest": 4327,
      "oops": 4328,
      "ĠTer": 4329,
      "ĠTime": 4330,
      "ĠSho": 4331,
      "icated": 4332,
      "ĠBoo": 4333,
      "ella": 4334,
      "ĠMor": 4335,
      "ĠMother": 4336,
      "ĠPawtucket": 4337,
      "Ġcance": 4338,
      "ĠLou": 4339,
      "ĠLog": 4340,
      "ĠDonna": 4341,
      "ĠHoney": 4342,
      "ĠOver": 4343,
      "ummy": 4344,
      "Ġvan": 4345,
      "osexual": 4346,
      "ĠEn": 4347,
      "Ġpean": 4348,
      "Ġrole": 4349,
      "Ġblame": 4350,
      "Ġsched": 4351,
      "ubb": 4352,
      "Ġchallen": 4353,
      "gged": 4354,
      "Ġperfectly": 4355,
      "ĠScott": 4356,
      "ipping": 4357,
      "Ġsalad": 4358,
      "Ġmember": 4359,
      "which": 4360,
      "ĠPlay": 4361,
      "Except": 4362,
      "ĠTricia": 4363,
      "Bye": 4364,
      "FAR": 4365,
      "Pewterschmidt": 4366,
      "SING": 4367,
      "TIN": 4368,
      "Today": 4369,
      "num": 4370,
      "zen": 4371,
      "Â©": 4372,
      "Ġvers": 4373,
      "Ġmic": 4374,
      "erm": 4375,
      "Ġdoo": 4376,
      "Ġcas": 4377,
      "Ġcrowd": 4378,
      "ston": 4379,
      "Ġinf": 4380,
      "utter": 4381,
      "ading": 4382,
      "ĠBea": 4383,
      "ĠMad": 4384,
      "ĠLau": 4385,
      "ĠNope": 4386,
      "urs": 4387,
      "urry": 4388,
      "ĠHam": 4389,
      "ĠEuro": 4390,
      "Ġexist": 4391,
      "Ġconcer": 4392,
      "Ġblank": 4393,
      "Ġcock": 4394,
      "Ġparts": 4395,
      "Ġunless": 4396,
      "Ġbooth": 4397,
      "Ġdecision": 4398,
      "Ġbedroom": 4399,
      "Ġsnow": 4400,
      "Ġsneak": 4401,
      "Ġcookie": 4402,
      "Ġpurse": 4403,
      "Ġdouche": 4404,
      "Ġdirect": 4405,
      "Ġcorner": 4406,
      "Ġfurther": 4407,
      "Ġinformation": 4408,
      ")|-": 4409,
      "CC": 4410,
      "Con": 4411,
      "Ew": 4412,
      "OO": 4413,
      "Relax": 4414,
      "ially": 4415,
      "jor": 4416,
      "ped": 4417,
      "pos": 4418,
      "rown": 4419,
      "uzz": 4420,
      "Ġought": 4421,
      "Ġmix": 4422,
      "Ġdet": 4423,
      "Ġpad": 4424,
      "omed": 4425,
      "Ġthro": 4426,
      "ĠSO": 4427,
      "ĠLand": 4428,
      "anted": 4429,
      "rab": 4430,
      "ify": 4431,
      "Ġvote": 4432,
      "ĠNobody": 4433,
      "berry": 4434,
      "Ġscary": 4435,
      "Ġ14": 4436,
      "Ġlived": 4437,
      "Ġawkward": 4438,
      "Ġtravel": 4439,
      "ĠDoctor": 4440,
      "hard": 4441,
      "Ġpray": 4442,
      "Ġprice": 4443,
      "ĠThree": 4444,
      "Ġseriously": 4445,
      "attle": 4446,
      "Ġsquir": 4447,
      "Ġbasically": 4448,
      "Ġcostume": 4449,
      "Ġblew": 4450,
      "VELAND": 4451,
      "Ġcreep": 4452,
      "Ġnatural": 4453,
      "ĠEurope": 4454,
      "AD": 4455,
      "PPING": 4456,
      "Probably": 4457,
      "ais": 4458,
      "chan": 4459,
      "pet": 4460,
      "pose": 4461,
      "will": 4462,
      "walk": 4463,
      "Ġtall": 4464,
      "onor": 4465,
      "Ġmention": 4466,
      "Ġtheater": 4467,
      "Ġbomb": 4468,
      "Ġcult": 4469,
      "Ġtoys": 4470,
      "aylor": 4471,
      "sey": 4472,
      "ĠBRIAN": 4473,
      "elling": 4474,
      "ĠCol": 4475,
      "ĠCaptain": 4476,
      "ĠPe": 4477,
      "Help": 4478,
      "ĠHis": 4479,
      "ĠHor": 4480,
      "ĠHot": 4481,
      "ĠHalloween": 4482,
      "Whatever": 4483,
      "rish": 4484,
      "ĠFat": 4485,
      "Ġspeaking": 4486,
      "Ġsaving": 4487,
      "Ġrings": 4488,
      "aker": 4489,
      "Ġnightmare": 4490,
      "ONTIN": 4491,
      "Ã£ÃŃ": 4492,
      "Ġdiffic": 4493,
      "Ġcontest": 4494,
      "gging": 4495,
      "Ġhurry": 4496,
      "Ġwalked": 4497,
      "door": 4498,
      "Ġlaid": 4499,
      "Ġinvol": 4500,
      "Ġdeliver": 4501,
      "ĠWhich": 4502,
      "Ġcookies": 4503,
      "Ġguns": 4504,
      "Ġannounce": 4505,
      "lorida": 4506,
      "Ġdiscuss": 4507,
      "hetic": 4508,
      "EATH": 4509,
      "Ġfantastic": 4510,
      "ĠSuper": 4511,
      "Ġlicense": 4512,
      "IGG": 4513,
      "Ġstomach": 4514,
      "ONTINU": 4515,
      "04": 4516,
      "BS": 4517,
      "Boo": 4518,
      "OPS": 4519,
      "cons": 4520,
      "Ġrough": 4521,
      "Ġwha": 4522,
      "Ġboring": 4523,
      "Ġnon": 4524,
      "Ġheld": 4525,
      "uty": 4526,
      "ĠGerman": 4527,
      "Ġarea": 4528,
      "ĠNorth": 4529,
      "ĠHall": 4530,
      "ĠHol": 4531,
      "asturb": 4532,
      "Ġprov": 4533,
      "Ġcontact": 4534,
      "Ġwilling": 4535,
      "Ġtwist": 4536,
      "Ġfinding": 4537,
      "Ġkeys": 4538,
      "angu": 4539,
      "ISP": 4540,
      "Ġlevel": 4541,
      "ÃĳÃı": 4542,
      "Ġspec": 4543,
      "ĠCHRIS": 4544,
      "Ġstrange": 4545,
      "Ġsurv": 4546,
      "harm": 4547,
      "ĠÃĪÃ¥": 4548,
      "Ġinvite": 4549,
      "Ġfreaking": 4550,
      "phone": 4551,
      "dden": 4552,
      "Ġapologize": 4553,
      "Ġwheelchair": 4554,
      "ĠLAUGHING": 4555,
      "Ġpractice": 4556,
      "Ġfreakin": 4557,
      "Ġeasier": 4558,
      "ĠOlivia": 4559,
      "ĠBritish": 4560,
      "Ġmagazine": 4561,
      "\")": 4562,
      "16": 4563,
      "Sw": 4564,
      "Sounds": 4565,
      "bed": 4566,
      "bers": 4567,
      "mail": 4568,
      "Ġ&": 4569,
      "Ġtennis": 4570,
      "Ġbesides": 4571,
      "Ġcoo": 4572,
      "Ġfans": 4573,
      "Ġlame": 4574,
      "etch": 4575,
      "Ġpin": 4576,
      "store": 4577,
      "ened": 4578,
      "Ġheaven": 4579,
      "Ġinj": 4580,
      "čĠĠĠ": 4581,
      "ĠBy": 4582,
      "ĠBro": 4583,
      "Ġstage": 4584,
      "ĠPark": 4585,
      "ĠDick": 4586,
      "ĠNah": 4587,
      "ushing": 4588,
      "ĠFe": 4589,
      "ĠRyan": 4590,
      "olen": 4591,
      "Ġthemselves": 4592,
      "rett": 4593,
      "Ġsmile": 4594,
      "Ġadventure": 4595,
      "Ġflat": 4596,
      "Ġapple": 4597,
      "Ġtraining": 4598,
      "Ġ200": 4599,
      "ances": 4600,
      "Ġmatters": 4601,
      "Ġtouched": 4602,
      "Ġshorts": 4603,
      "Ġsurprised": 4604,
      "Ġfingers": 4605,
      "Ġcondom": 4606,
      "ĠPatrick": 4607,
      "Ġrobot": 4608,
      "Ġracist": 4609,
      "Ġfemale": 4610,
      "oretta": 4611,
      "ĠHitler": 4612,
      "13": 4613,
      "14": 4614,
      "Ar": 4615,
      "lie": 4616,
      "oc": 4617,
      "Ãļ": 4618,
      "Ġign": 4619,
      "Ġtip": 4620,
      "Ġtank": 4621,
      "Ġwast": 4622,
      "Ġwinner": 4623,
      "itude": 4624,
      "Ġfarm": 4625,
      "Ġport": 4626,
      "Ġocc": 4627,
      "ader": 4628,
      "usted": 4629,
      "Ġlibr": 4630,
      "ĠBra": 4631,
      "ĠCLA": 4632,
      "ĠPop": 4633,
      "irls": 4634,
      "Ġgoin": 4635,
      "unately": 4636,
      "ĠJon": 4637,
      "ĠRun": 4638,
      "Ġlosing": 4639,
      "Ġcomfortable": 4640,
      "Ġspit": 4641,
      "Ġactual": 4642,
      "Ġkinda": 4643,
      "Ġcheap": 4644,
      "oston": 4645,
      "ford": 4646,
      "ONG": 4647,
      "Ġheads": 4648,
      "Ġentertain": 4649,
      "Ġrule": 4650,
      "Ġcleaning": 4651,
      "ĠCheck": 4652,
      "Ġboob": 4653,
      "Ġinterview": 4654,
      "ĠUncle": 4655,
      "Ġgrowing": 4656,
      "Ġbowl": 4657,
      "Ġfridge": 4658,
      "SCREAMING": 4659,
      "ylan": 4660,
      "caine": 4661,
      "Ġjeans": 4662,
      "pensive": 4663,
      "Ġgarage": 4664,
      "Ġcousin": 4665,
      "stein": 4666,
      "19": 4667,
      "Cool": 4668,
      "Ladies": 4669,
      "PANTING": 4670,
      "gonna": 4671,
      "pie": 4672,
      "word": 4673,
      "Ġtast": 4674,
      "Ġtail": 4675,
      "erg": 4676,
      "Ġgri": 4677,
      "Ġpod": 4678,
      "Ġpiano": 4679,
      "Ġthreat": 4680,
      "oog": 4681,
      "Ġund": 4682,
      "ĠTak": 4683,
      "ĠSounds": 4684,
      "ĠGiggity": 4685,
      "Ġknife": 4686,
      "ĠAbsolutely": 4687,
      "ĠAIDS": 4688,
      "chuck": 4689,
      "Ġguilty": 4690,
      "iles": 4691,
      "Ġsudden": 4692,
      "ĠFirst": 4693,
      "ĠFlorida": 4694,
      "Ġplenty": 4695,
      "ĠEw": 4696,
      "ference": 4697,
      "ĠYup": 4698,
      "Ġfuneral": 4699,
      "Ġolder": 4700,
      "ressed": 4701,
      "Ġstarts": 4702,
      "Ġsecurity": 4703,
      "Ġowner": 4704,
      "Ġappro": 4705,
      "ĠLooks": 4706,
      "ĠChristian": 4707,
      "ĠOnly": 4708,
      "Ġstrang": 4709,
      "ĠÃ£Ã¤": 4710,
      "Ġchicks": 4711,
      "Ġpulled": 4712,
      "Ġstudent": 4713,
      "ĠEmmy": 4714,
      "Ġslept": 4715,
      "Ġescape": 4716,
      "Ġnurse": 4717,
      "Ġbarely": 4718,
      "Ġconcert": 4719,
      "Ġnumbers": 4720,
      "17": 4721,
      "Love": 4722,
      "Try": 4723,
      "Tonight": 4724,
      "case": 4725,
      "did": 4726,
      "por": 4727,
      "Ġtherap": 4728,
      "Ġdise": 4729,
      "Ġcustom": 4730,
      "Ġlangu": 4731,
      "otch": 4732,
      "Ġhug": 4733,
      "ĠWood": 4734,
      "ĠSar": 4735,
      "ĠSch": 4736,
      "aded": 4737,
      "Ġjoy": 4738,
      "Ġfort": 4739,
      "ĠBoston": 4740,
      "ĠCLIC": 4741,
      "ĠAf": 4742,
      "ĠOld": 4743,
      "Ġspo": 4744,
      "Ġspee": 4745,
      "Ġproject": 4746,
      "ĠKore": 4747,
      "Ġpartner": 4748,
      "Ġenergy": 4749,
      "Ġchew": 4750,
      "Ġbrown": 4751,
      "tail": 4752,
      "Ġcareer": 4753,
      "Ġtowel": 4754,
      "ORN": 4755,
      "otten": 4756,
      "Ġcontract": 4757,
      "ĠWhite": 4758,
      "Ġannoy": 4759,
      "Ġshooting": 4760,
      "ĠÃıÃĩÃĳ": 4761,
      "Ġdouble": 4762,
      "Ġwallet": 4763,
      "Ġsoup": 4764,
      "fficer": 4765,
      "Ġterrific": 4766,
      "Ġdifficult": 4767,
      "ONTINUES": 4768,
      "Bonnie": 4769,
      "DR": 4770,
      "Ro": 4771,
      "hone": 4772,
      "len": 4773,
      "ral": 4774,
      "Ġauth": 4775,
      "Ġsch": 4776,
      "ĠIrish": 4777,
      "Ġbump": 4778,
      "ises": 4779,
      "Ġlone": 4780,
      "Ġocean": 4781,
      "keep": 4782,
      "Ġears": 4783,
      "ĠSus": 4784,
      "ĠSouth": 4785,
      "ĠSweet": 4786,
      "ĠCall": 4787,
      "ĠPer": 4788,
      "ĠDV": 4789,
      "Ġnovel": 4790,
      "Ġplate": 4791,
      "Ġdevice": 4792,
      "olf": 4793,
      "itted": 4794,
      "before": 4795,
      "Ġclimb": 4796,
      "Ġkiller": 4797,
      "Ġshame": 4798,
      "ailable": 4799,
      "Ġdifference": 4800,
      "Ġbuying": 4801,
      "ĠClub": 4802,
      "Ġlearning": 4803,
      "Ġpresents": 4804,
      "Ġcommon": 4805,
      "Ġmedia": 4806,
      "Ġbasket": 4807,
      "Ġzero": 4808,
      "Ġcorrect": 4809,
      "Ġanimal": 4810,
      "Doesn": 4811,
      "ĠPhil": 4812,
      "Ġissue": 4813,
      "Ġpumpkin": 4814,
      "EEPS": 4815,
      "ĠSCREAMING": 4816,
      "Glenn": 4817,
      "Ġnetwork": 4818,
      "Bet": 4819,
      "Call": 4820,
      "TA": 4821,
      "UL": 4822,
      "sl": 4823,
      "sha": 4824,
      "then": 4825,
      "uise": 4826,
      "rem": 4827,
      "Ġwide": 4828,
      "Ġmap": 4829,
      "Ġbal": 4830,
      "Ġbored": 4831,
      "inger": 4832,
      "anny": 4833,
      "Ġdam": 4834,
      "Ġcos": 4835,
      "Ġfra": 4836,
      "Ġnic": 4837,
      "Ġpills": 4838,
      "oted": 4839,
      "Ġhig": 4840,
      "ĠTurn": 4841,
      "ĠTaylor": 4842,
      "Ġrepe": 4843,
      "ĠMur": 4844,
      "ĠPol": 4845,
      "ĠApple": 4846,
      "ĠLast": 4847,
      "Ġwithin": 4848,
      "urger": 4849,
      "ĠJOE": 4850,
      "essed": 4851,
      "arded": 4852,
      "arden": 4853,
      "berg": 4854,
      "apan": 4855,
      "ables": 4856,
      "ĠUp": 4857,
      "Ġshowed": 4858,
      "izing": 4859,
      "Ġaction": 4860,
      "ĠIsn": 4861,
      "Ġappears": 4862,
      "ĠCHIR": 4863,
      "Ġcrash": 4864,
      "Ġcats": 4865,
      "Ġcomplain": 4866,
      "QUIE": 4867,
      "Ġpainting": 4868,
      "Ġtotal": 4869,
      "Ġsales": 4870,
      "Ġbright": 4871,
      "Ġstrike": 4872,
      "Ġflying": 4873,
      "Ġdrove": 4874,
      "EAKING": 4875,
      "ĠÃĬÃ¦": 4876,
      "Ġdisappoint": 4877,
      "Ġdivorce": 4878,
      "Ġattractive": 4879,
      "ĠParis": 4880,
      "Ġjourney": 4881,
      "Ġintroduce": 4882,
      "LI": 4883,
      "Mar": 4884,
      "Make": 4885,
      "PEN": 4886,
      "cery": 4887,
      "nes": 4888,
      "pro": 4889,
      "Ġtatt": 4890,
      "ising": 4891,
      "anawa": 4892,
      "Ġdeg": 4893,
      "Ġfear": 4894,
      "ĠWild": 4895,
      "Ġequ": 4896,
      "ĠSn": 4897,
      "ĠBre": 4898,
      "ĠCut": 4899,
      "ĠLady": 4900,
      "Ġneither": 4901,
      "unior": 4902,
      "ourt": 4903,
      "Ġbabe": 4904,
      "ilies": 4905,
      "ĠRush": 4906,
      "Ġlob": 4907,
      "Ġexpensive": 4908,
      "Ġprostit": 4909,
      "aby": 4910,
      "Ġtwe": 4911,
      "Ġcocaine": 4912,
      "Ġdrown": 4913,
      "Still": 4914,
      "Ġident": 4915,
      "Ġuncle": 4916,
      "Ġadvice": 4917,
      "ARS": 4918,
      "Ġfella": 4919,
      "ĠÃĩÃĴ": 4920,
      "velop": 4921,
      "Ġfollowing": 4922,
      "Ġstudents": 4923,
      "Ġticket": 4924,
      "Ġmurderer": 4925,
      "Ġyellow": 4926,
      "Ġrespond": 4927,
      "Ġ60": 4928,
      "ĠIndian": 4929,
      "Ġdestroyed": 4930,
      "Trust": 4931,
      "Ġcabin": 4932,
      "ĠAngela": 4933,
      "Ġlaund": 4934,
      "Ġprotect": 4935,
      "Ġliterally": 4936,
      "Ġthroat": 4937,
      "ĠTakanawa": 4938,
      "Ġlanguage": 4939,
      "'\"": 4940,
      "Dog": 4941,
      "Morning": 4942,
      "UFF": 4943,
      "cue": 4944,
      "hmm": 4945,
      "mark": 4946,
      "rated": 4947,
      "tra": 4948,
      "isc": 4949,
      "inging": 4950,
      "itor": 4951,
      "itiz": 4952,
      "Ġfaces": 4953,
      "Ġnonsense": 4954,
      "Ġpiss": 4955,
      "otally": 4956,
      "Ġoften": 4957,
      "Ġweather": 4958,
      "ĠSam": 4959,
      "ĠBa": 4960,
      "ĠCal": 4961,
      "imp": 4962,
      "Ġsepar": 4963,
      "ĠHill": 4964,
      "Ġshirts": 4965,
      "ĠJan": 4966,
      "ĠJapan": 4967,
      "INHALES": 4968,
      "arts": 4969,
      "Ġ(\"": 4970,
      "Ġspell": 4971,
      "istic": 4972,
      "Ġherself": 4973,
      "Ġexha": 4974,
      "Ġordered": 4975,
      "Ġagreed": 4976,
      "apers": 4977,
      "acle": 4978,
      "Ġrabb": 4979,
      "awn": 4980,
      "Ġsweater": 4981,
      "tered": 4982,
      "ivil": 4983,
      "ibility": 4984,
      "Ġmessed": 4985,
      "ropri": 4986,
      "Ġcopy": 4987,
      "Ġfilthy": 4988,
      "Ġfamilies": 4989,
      "Ġcelebrity": 4990,
      "Ġfarts": 4991,
      "Ġcowboy": 4992,
      "Ġembarrassing": 4993,
      "ography": 4994,
      "Ġopport": 4995,
      "Ġtype": 4996,
      "SNIFFS": 4997,
      "Ġsplit": 4998,
      "Ġoriginal": 4999,
      "omeday": 5000,
      "Ġspeech": 5001,
      "03": 5002,
      "08": 5003,
      "CLA": 5004,
      "NA": 5005,
      "ground": 5006,
      "ollow": 5007,
      "put": 5008,
      "tes": 5009,
      "Ġ*": 5010,
      "Ġwis": 5011,
      "Ġmasturb": 5012,
      "Ġgames": 5013,
      "itched": 5014,
      "Ġcause": 5015,
      "Ġfro": 5016,
      "vey": 5017,
      "sters": 5018,
      "Ġthrill": 5019,
      "Ġhiding": 5020,
      "Ġintern": 5021,
      "Ġbeha": 5022,
      "ĠSchool": 5023,
      "Ġforce": 5024,
      "ĠBack": 5025,
      "Ġstock": 5026,
      "ĠAir": 5027,
      "ĠLife": 5028,
      "ĠDylan": 5029,
      "ĠJerry": 5030,
      "eline": 5031,
      "ĠOsc": 5032,
      "ares": 5033,
      "Ġblah": 5034,
      "Ġothers": 5035,
      "ĠValent": 5036,
      "ÃĩÃ¡": 5037,
      "Ġhates": 5038,
      "aws": 5039,
      "rences": 5040,
      "Ġshoe": 5041,
      "Ġinsp": 5042,
      "Ġfocus": 5043,
      "uesday": 5044,
      "Ġended": 5045,
      "ĠBrad": 5046,
      "LED": 5047,
      "LOUD": 5048,
      "ĠChic": 5049,
      "arrhea": 5050,
      "Ġfellow": 5051,
      "Ġstaring": 5052,
      "ĠJohnny": 5053,
      "Ġmedic": 5054,
      "Ġzoo": 5055,
      "Ġstrip": 5056,
      "Ġcloser": 5057,
      "ĠTrump": 5058,
      "Ġsoul": 5059,
      "icapped": 5060,
      "EEPING": 5061,
      "urious": 5062,
      "Ġavailable": 5063,
      "ĠMartin": 5064,
      "Ġevidence": 5065,
      "Ġannoying": 5066,
      "\"!": 5067,
      "02": 5068,
      "05": 5069,
      "Ad": 5070,
      "De": 5071,
      "EO": 5072,
      "Nope": 5073,
      "NCE": 5074,
      "UTS": 5075,
      "call": 5076,
      "cra": 5077,
      "cil": 5078,
      "ection": 5079,
      "Âį": 5080,
      "Ġtim": 5081,
      "Ġtrop": 5082,
      "ham": 5083,
      "Ġbone": 5084,
      "Ġbond": 5085,
      "llie": 5086,
      "ingle": 5087,
      "Ġdish": 5088,
      "oting": 5089,
      "Ġitself": 5090,
      "lex": 5091,
      "Ġreplace": 5092,
      "Ġlies": 5093,
      "Ġsteak": 5094,
      "ĠCO": 5095,
      "ĠCent": 5096,
      "lyn": 5097,
      "hold": 5098,
      "ĠLoretta": 5099,
      "Ġsocial": 5100,
      "ppers": 5101,
      "ĠHan": 5102,
      "uns": 5103,
      "unts": 5104,
      "using": 5105,
      "ĠFour": 5106,
      "Ġloss": 5107,
      "Ġdemand": 5108,
      "ains": 5109,
      "icken": 5110,
      "emy": 5111,
      "emon": 5112,
      "Quick": 5113,
      "Ġconv": 5114,
      "acks": 5115,
      "ĠJoan": 5116,
      "ANCE": 5117,
      "ÃĩÃ¤": 5118,
      "Uhp": 5119,
      "Ġshape": 5120,
      "Ġmustache": 5121,
      "Ġresults": 5122,
      "ĠShh": 5123,
      "Ġswitch": 5124,
      "Ġwinning": 5125,
      "ĠWhoo": 5126,
      "Mrs": 5127,
      "Ġenjoying": 5128,
      "ĠEverything": 5129,
      "Ġidiots": 5130,
      "Ġfollowed": 5131,
      "ĠJimmy": 5132,
      "Ġtreasure": 5133,
      "Ġmodel": 5134,
      "Ġincredible": 5135,
      "KNOCKING": 5136,
      "Ġvictim": 5137,
      "ĠStewart": 5138,
      "Ġvagina": 5139,
      "Ġdeaf": 5140,
      "Ġromantic": 5141,
      "ĠValentine": 5142,
      "'?": 5143,
      "06": 5144,
      "40": 5145,
      "BA": 5146,
      "Little": 5147,
      "Nah": 5148,
      "Up": 5149,
      "Want": 5150,
      "ba": 5151,
      "duh": 5152,
      "face": 5153,
      "guy": 5154,
      "lock": 5155,
      "Ġtun": 5156,
      "Ġah": 5157,
      "ination": 5158,
      "reme": 5159,
      "Ġwives": 5160,
      "Ġmain": 5161,
      "Ġmountain": 5162,
      "Ġden": 5163,
      "Ġchat": 5164,
      "Ġlake": 5165,
      "Ġner": 5166,
      "Ġhitting": 5167,
      "ĠTuesday": 5168,
      "ĠSer": 5169,
      "Ġreview": 5170,
      "ĠBible": 5171,
      "Ġstolen": 5172,
      "ĠCho": 5173,
      "ĠCould": 5174,
      "Ġknowing": 5175,
      "Ġsociety": 5176,
      "anda": 5177,
      "urg": 5178,
      "ĠJose": 5179,
      "ĠJud": 5180,
      "Ġseemed": 5181,
      "essert": 5182,
      "Ġplastic": 5183,
      "Ġsale": 5184,
      "Ġsomethin": 5185,
      "Ġorgan": 5186,
      "ĠKids": 5187,
      "Ġscream": 5188,
      "Ġcoat": 5189,
      "Ġarmy": 5190,
      "Ġshake": 5191,
      "ording": 5192,
      "Ġslide": 5193,
      "ATIC": 5194,
      "ĠBruce": 5195,
      "Ġbrings": 5196,
      "ggs": 5197,
      "Ġhaircut": 5198,
      "ĠSpace": 5199,
      "ĠÃĩÃ¦Ã¤": 5200,
      "Ġdreams": 5201,
      "Ġbasement": 5202,
      "Ġsentence": 5203,
      "ĠMonkey": 5204,
      "Ġstraw": 5205,
      "Ġbullet": 5206,
      "ratcher": 5207,
      "ĠSomeone": 5208,
      "ĠAnyway": 5209,
      "Ġdiscovered": 5210,
      "arrington": 5211,
      "looking": 5212,
      "ĠFacebook": 5213,
      "Ġreligion": 5214,
      "Ġsquirrel": 5215,
      "Ġdisease": 5216,
      "ĠDVD": 5217,
      "Congratulations": 5218,
      "Fe": 5219,
      "GIGG": 5220,
      "OVER": 5221,
      "PLAY": 5222,
      "UZZ": 5223,
      "dies": 5224,
      "eer": 5225,
      "press": 5226,
      "tress": 5227,
      "two": 5228,
      "uI": 5229,
      "would": 5230,
      "Ãĺ": 5231,
      "Ġwit": 5232,
      "Ġdessert": 5233,
      "orable": 5234,
      "ette": 5235,
      "Ġpub": 5236,
      "Ġop": 5237,
      "eds": 5238,
      "esh": 5239,
      "rick": 5240,
      "Ġhel": 5241,
      "lest": 5242,
      "kel": 5243,
      "ĠWil": 5244,
      "Ġdoin": 5245,
      "ality": 5246,
      "ĠSu": 5247,
      "ĠSpe": 5248,
      "Ġjudge": 5249,
      "ĠCR": 5250,
      "Ġknee": 5251,
      "ĠParty": 5252,
      "Ġneg": 5253,
      "illed": 5254,
      "opter": 5255,
      "hered": 5256,
      "ĠJess": 5257,
      "ago": 5258,
      "ived": 5259,
      "Ġsuff": 5260,
      "Ġalarm": 5261,
      "ĠÃį": 5262,
      "Ġamount": 5263,
      "Ġclown": 5264,
      "Ġcoach": 5265,
      "Ġ13": 5266,
      "ÃĩÃı": 5267,
      "ugs": 5268,
      "Ġshopping": 5269,
      "Ġopened": 5270,
      "ĠShould": 5271,
      "shirt": 5272,
      "Ġruining": 5273,
      "Once": 5274,
      "Ġenjoyed": 5275,
      "ipples": 5276,
      "Ġcooking": 5277,
      "Ġregret": 5278,
      "Ġaddict": 5279,
      "Three": 5280,
      "fortunately": 5281,
      "Ġprofession": 5282,
      "Ġjacket": 5283,
      "Ġgrocery": 5284,
      "Ġteenage": 5285,
      "Ġmirror": 5286,
      "Ġmajor": 5287,
      "ĠBaby": 5288,
      "Ġinvented": 5289,
      "Ġelectric": 5290,
      "Ġscience": 5291,
      "ĠRichard": 5292,
      "ĠGRUNTING": 5293,
      "Ġschedule": 5294,
      "Ġlibrary": 5295,
      "Ġauthor": 5296,
      "Ġlaundry": 5297,
      "UFFLED": 5298,
      "09": 5299,
      "Es": 5300,
      "Family": 5301,
      "NE": 5302,
      "Son": 5303,
      "WOMAN": 5304,
      "bit": 5305,
      "cul": 5306,
      "ds": 5307,
      "know": 5308,
      "mag": 5309,
      "mate": 5310,
      "ners": 5311,
      "rit": 5312,
      "rase": 5313,
      "test": 5314,
      "Ãį": 5315,
      "Ġtag": 5316,
      "inc": 5317,
      "Ġwipe": 5318,
      "Ġmale": 5319,
      "itar": 5320,
      "Ġcode": 5321,
      "Ġcapt": 5322,
      "Ġcaus": 5323,
      "Ġcitiz": 5324,
      "owing": 5325,
      "eng": 5326,
      "ening": 5327,
      "Ġhired": 5328,
      "Ġincl": 5329,
      "Ġonline": 5330,
      "outs": 5331,
      "Ġlip": 5332,
      "ĠBad": 5333,
      "ĠBel": 5334,
      "ĠGreg": 5335,
      "iring": 5336,
      "Ġgosh": 5337,
      "illa": 5338,
      "ifer": 5339,
      "Ġsoap": 5340,
      "ĠHonor": 5341,
      "ĠRick": 5342,
      "ummer": 5343,
      "Ġlocked": 5344,
      "eps": 5345,
      "icks": 5346,
      "bee": 5347,
      "ĠEv": 5348,
      "Ġclock": 5349,
      "ĠKyle": 5350,
      "Ġtruly": 5351,
      "Ġ16": 5352,
      "Ġfinds": 5353,
      "Ġfav": 5354,
      "ildren": 5355,
      "ISS": 5356,
      "Ġhated": 5357,
      "Ġjobs": 5358,
      "Ġmattress": 5359,
      "Ġdescri": 5360,
      "Anyone": 5361,
      "ceries": 5362,
      "Ġgenius": 5363,
      "Think": 5364,
      "ĠComp": 5365,
      "Ġexpress": 5366,
      "Ġcommercials": 5367,
      "Ġproduct": 5368,
      "ĠUSA": 5369,
      "Ġilleg": 5370,
      "Ġeffect": 5371,
      "Ġstatue": 5372,
      "Ġversion": 5373,
      "App": 5374,
      "ACH": 5375,
      "More": 5376,
      "MUFFLED": 5377,
      "aim": 5378,
      "ders": 5379,
      "even": 5380,
      "gs": 5381,
      "nic": 5382,
      "pack": 5383,
      "sm": 5384,
      "sn": 5385,
      "tr": 5386,
      "Ġwre": 5387,
      "ĠIittle": 5388,
      "erable": 5389,
      "Ġbars": 5390,
      "itary": 5391,
      "Ġcaptain": 5392,
      "Ġlaughter": 5393,
      "Ġpic": 5394,
      "Ġpud": 5395,
      "Ġpanc": 5396,
      "Ġpounds": 5397,
      "omy": 5398,
      "eding": 5399,
      "Ġhors": 5400,
      "see": 5401,
      "ĠTe": 5402,
      "ĠTex": 5403,
      "ĠMin": 5404,
      "ĠGar": 5405,
      "Ġsees": 5406,
      "ĠLadies": 5407,
      "Ġant": 5408,
      "iev": 5409,
      "ĠDel": 5410,
      "ourse": 5411,
      "ĠJenn": 5412,
      "Ġwhoever": 5413,
      "ĠRon": 5414,
      "INGS": 5415,
      "Ġlocker": 5416,
      "egas": 5417,
      "Ġdeuce": 5418,
      "uckle": 5419,
      "ĠEmp": 5420,
      "Ġexerc": 5421,
      "Ġhadn": 5422,
      "through": 5423,
      "ĠKeep": 5424,
      "Ġquarter": 5425,
      "ÃĩÃĶ": 5426,
      "Ġhandicapped": 5427,
      "Ġchannel": 5428,
      "Ġflag": 5429,
      "Ġboom": 5430,
      "Ġslight": 5431,
      "Ġappear": 5432,
      "Ġapparently": 5433,
      "Ġends": 5434,
      "Ġdecide": 5435,
      "xcellent": 5436,
      "Ġyounger": 5437,
      "Ġapart": 5438,
      "Ġpaint": 5439,
      "ology": 5440,
      "ĠSex": 5441,
      "Ġmemory": 5442,
      "ĠNext": 5443,
      "Ġreporter": 5444,
      "Ġpotato": 5445,
      "iliar": 5446,
      "Ġsuccessful": 5447,
      "ĠGoldman": 5448,
      "ĠJackson": 5449,
      "ĠRobin": 5450,
      "Ġfucking": 5451,
      "Perhaps": 5452,
      "Ġresponsible": 5453,
      "DOORBELL": 5454,
      "Ġsusp": 5455,
      "mission": 5456,
      "Ġpeanut": 5457,
      "Ġinvolved": 5458,
      "harmacy": 5459,
      "ĠJapanese": 5460,
      "07": 5461,
      "Back": 5462,
      "Carter": 5463,
      "GUN": 5464,
      "OT": 5465,
      "SP": 5466,
      "SQU": 5467,
      "bet": 5468,
      "dr": 5469,
      "doo": 5470,
      "phan": 5471,
      "suit": 5472,
      "vis": 5473,
      "worth": 5474,
      "Ġver": 5475,
      "Ġtit": 5476,
      "Ġbod": 5477,
      "Ġfold": 5478,
      "Ġloose": 5479,
      "Ġpals": 5480,
      "esb": 5481,
      "Ġhob": 5482,
      "asons": 5483,
      "Ġisland": 5484,
      "ĠBon": 5485,
      "ĠMat": 5486,
      "ĠMmm": 5487,
      "ĠAPPLAUSE": 5488,
      "cho": 5489,
      "Ġseats": 5490,
      "ĠLo": 5491,
      "antly": 5492,
      "Ġabove": 5493,
      "Ġshh": 5494,
      "ĠJoy": 5495,
      "aghet": 5496,
      "ĠOb": 5497,
      "ĠRemember": 5498,
      "Ġwhis": 5499,
      "Ġplug": 5500,
      "Ġgoodness": 5501,
      "Ġdevelop": 5502,
      "Ġmanager": 5503,
      "icked": 5504,
      "Ġsail": 5505,
      "Ġrow": 5506,
      "Ġmob": 5507,
      "resp": 5508,
      "Ġagent": 5509,
      "uddy": 5510,
      "Ġkidna": 5511,
      "ĠQueen": 5512,
      "ples": 5513,
      "EST": 5514,
      "Ġ17": 5515,
      "Ġunf": 5516,
      "Ġimm": 5517,
      "Ġawake": 5518,
      "Ġharder": 5519,
      "Ġserve": 5520,
      "Ġmusical": 5521,
      "Ġchecking": 5522,
      "Ġaccom": 5523,
      "Ġbirds": 5524,
      "Ġbrave": 5525,
      "ĠForget": 5526,
      "ĠAwesome": 5527,
      "IRRING": 5528,
      "Although": 5529,
      "Ġquickly": 5530,
      "ĠBobby": 5531,
      "Ġapology": 5532,
      "Ġcondition": 5533,
      "Ġstealing": 5534,
      "ĠGASP": 5535,
      "BBING": 5536,
      "Guess": 5537,
      "Ġholiday": 5538,
      "ĠSarah": 5539,
      "QUIETLY": 5540,
      "Ġtweet": 5541,
      "Bo": 5542,
      "Fr": 5543,
      "Jeez": 5544,
      "UP": 5545,
      "after": 5546,
      "bum": 5547,
      "erest": 5548,
      "gun": 5549,
      "say": 5550,
      "town": 5551,
      "ĠQ": 5552,
      "inny": 5553,
      "Ġwave": 5554,
      "oned": 5555,
      "Ġyo": 5556,
      "isle": 5557,
      "itation": 5558,
      "Ġfac": 5559,
      "Ġfruit": 5560,
      "Ġlap": 5561,
      "rie": 5562,
      "lear": 5563,
      "ĠSea": 5564,
      "ico": 5565,
      "icide": 5566,
      "ĠBall": 5567,
      "ĠBye": 5568,
      "Ġstre": 5569,
      "ĠCount": 5570,
      "ĠCONTINUES": 5571,
      "ĠMake": 5572,
      "ĠMorning": 5573,
      "ĠMama": 5574,
      "eave": 5575,
      "ĠGr": 5576,
      "Ġsever": 5577,
      "roke": 5578,
      "Ġgum": 5579,
      "raq": 5580,
      "ĠNet": 5581,
      "ĠNat": 5582,
      "ĠHell": 5583,
      "ĠHome": 5584,
      "ĠOfficer": 5585,
      "Ġspread": 5586,
      "resent": 5587,
      "Ġshowing": 5588,
      "Ġplayer": 5589,
      "Ġchest": 5590,
      "Ġcheating": 5591,
      "Ġcarry": 5592,
      "ĠVegas": 5593,
      "Ġremem": 5594,
      "Ġflip": 5595,
      "Ã¤Ãı": 5596,
      "Ġposition": 5597,
      "ails": 5598,
      "Ġdisaster": 5599,
      "Ġappl": 5600,
      "Ġgrad": 5601,
      "ORING": 5602,
      "Ġswing": 5603,
      "Ġterror": 5604,
      "Christ": 5605,
      "oopy": 5606,
      "ĠDerek": 5607,
      "Ġ45": 5608,
      "Ġconfused": 5609,
      "Ġtouching": 5610,
      "Ġaffair": 5611,
      "Ġaffect": 5612,
      "ĠCharlie": 5613,
      "WHISP": 5614,
      "UMB": 5615,
      "Ġcharacters": 5616,
      "ĠTHEME": 5617,
      "Ġcontinue": 5618,
      "ÃİÃ¦": 5619,
      "Ġbreasts": 5620,
      "Ġrecognize": 5621,
      "ĠÃŃÃ¥": 5622,
      "ĠAfric": 5623,
      "ĠCHIRPING": 5624,
      "aghetti": 5625,
      "Americ": 5626,
      "DEATH": 5627,
      "GINE": 5628,
      "bra": 5629,
      "gia": 5630,
      "mates": 5631,
      "sed": 5632,
      "something": 5633,
      "vo": 5634,
      "vard": 5635,
      "wife": 5636,
      "woman": 5637,
      "Ġton": 5638,
      "Ġtong": 5639,
      "Ġwa": 5640,
      "Ġwoke": 5641,
      "Ġsau": 5642,
      "Ġmaster": 5643,
      "ĠIraq": 5644,
      "Ġoil": 5645,
      "otic": 5646,
      "alt": 5647,
      "ĠSP": 5648,
      "ĠSur": 5649,
      "Ġreached": 5650,
      "Ġliber": 5651,
      "Ġlift": 5652,
      "ĠBat": 5653,
      "ĠBarb": 5654,
      "ĠMax": 5655,
      "ĠGeez": 5656,
      "ĠPort": 5657,
      "ĠAp": 5658,
      "ĠACC": 5659,
      "irm": 5660,
      "ĠDen": 5661,
      "ĠDEEP": 5662,
      "ĠHud": 5663,
      "ĠRep": 5664,
      "Ġcoma": 5665,
      "ĠÃŀ": 5666,
      "ĠEve": 5667,
      "ĠEven": 5668,
      "ups": 5669,
      "Ġtells": 5670,
      "Ġrocks": 5671,
      "Ġblast": 5672,
      "Ġscore": 5673,
      "Ġmuse": 5674,
      "AND": 5675,
      "Stay": 5676,
      "Ġadop": 5677,
      "ICAL": 5678,
      "Ġchanges": 5679,
      "Ġheading": 5680,
      "ancis": 5681,
      "Ġleaves": 5682,
      "Ġnewsp": 5683,
      "Ġchecked": 5684,
      "ivity": 5685,
      "Ġprot": 5686,
      "Ġpieces": 5687,
      "Ġbuzz": 5688,
      "THE": 5689,
      "Ġfourth": 5690,
      "Shh": 5691,
      "ĠThurs": 5692,
      "entlemen": 5693,
      "Ġbrothers": 5694,
      "ĠTHRO": 5695,
      "Ġaccidentally": 5696,
      "ĠPatriots": 5697,
      "Ġguests": 5698,
      "Ġbeginning": 5699,
      "Seems": 5700,
      "Mayor": 5701,
      "UTTER": 5702,
      "ĠDisney": 5703,
      "Ġsuddenly": 5704,
      "ropriate": 5705,
      "ĠThursday": 5706,
      "60": 5707,
      "ELE": 5708,
      "ION": 5709,
      "New": 5710,
      "Out": 5711,
      "Pat": 5712,
      "action": 5713,
      "bird": 5714,
      "lim": 5715,
      "met": 5716,
      "rong": 5717,
      "inter": 5718,
      "rep": 5719,
      "ĠIove": 5720,
      "Ġgre": 5721,
      "Ġgal": 5722,
      "Ġduty": 5723,
      "Ġlower": 5724,
      "nda": 5725,
      "Ġpile": 5726,
      "Ġoven": 5727,
      "Ġooh": 5728,
      "otty": 5729,
      "Ġhorn": 5730,
      "Ġbeers": 5731,
      "asion": 5732,
      "Ġweap": 5733,
      "ĠWatch": 5734,
      "Ġdoors": 5735,
      "ĠSix": 5736,
      "uster": 5737,
      "Ġrepl": 5738,
      "Ġlimit": 5739,
      "ĠBY": 5740,
      "ĠCr": 5741,
      "ĠMid": 5742,
      "ĠPHONE": 5743,
      "ĠLat": 5744,
      "ĠLaw": 5745,
      "ĠLarry": 5746,
      "Ġguitar": 5747,
      "ĠDu": 5748,
      "Ġabort": 5749,
      "hington": 5750,
      "ĠFair": 5751,
      "Ġdev": 5752,
      "ĠÃĴ": 5753,
      "Ġrat": 5754,
      "Ġrout": 5755,
      "ures": 5756,
      "Ġrope": 5757,
      "aches": 5758,
      "Ġchief": 5759,
      "plane": 5760,
      "Ġbeloved": 5761,
      "Ġthoughts": 5762,
      "azy": 5763,
      "Ġslut": 5764,
      "Ġappoint": 5765,
      "Ġplanning": 5766,
      "ĠJustin": 5767,
      "ensive": 5768,
      "Ġpicking": 5769,
      "Anything": 5770,
      "Ġlegal": 5771,
      "Before": 5772,
      "Ġclassic": 5773,
      "Ġdeli": 5774,
      "ruction": 5775,
      "Ġwarning": 5776,
      "ĠAnna": 5777,
      "Ġstudy": 5778,
      "ĠBriggs": 5779,
      "Ġinterrupt": 5780,
      "Ġgentleman": 5781,
      "Ġneighbors": 5782,
      "flix": 5783,
      "Ġringing": 5784,
      "Ġcreative": 5785,
      "Ġphotos": 5786,
      "Ġveget": 5787,
      "Ġsnack": 5788,
      "Ġhonestly": 5789,
      "Ġembarrassed": 5790,
      "Unless": 5791,
      "Ġfailed": 5792,
      "ĠSTOPS": 5793,
      "Ġpillow": 5794,
      "Ġexample": 5795,
      "Ġproperty": 5796,
      "SOBBING": 5797,
      "Ġopportunity": 5798,
      "ĠOscar": 5799,
      "ĠJoseph": 5800,
      "ĠTexas": 5801,
      "Gosh": 5802,
      "IO": 5803,
      "Most": 5804,
      "Sweet": 5805,
      "foot": 5806,
      "ios": 5807,
      "made": 5808,
      "non": 5809,
      "pter": 5810,
      "uction": 5811,
      "win": 5812,
      "Ġwoods": 5813,
      "Ġwien": 5814,
      "Ġmood": 5815,
      "isf": 5816,
      "Ġtoss": 5817,
      "Ġlas": 5818,
      "Ġnut": 5819,
      "Ġnipples": 5820,
      "arate": 5821,
      "ata": 5822,
      "Ġinno": 5823,
      "Ġbelly": 5824,
      "Ġbeef": 5825,
      "ĠWonder": 5826,
      "ĠWars": 5827,
      "Ġemer": 5828,
      "Ġstood": 5829,
      "ĠCos": 5830,
      "ĠCourt": 5831,
      "ĠGRO": 5832,
      "ĠPad": 5833,
      "ĠAnt": 5834,
      "ros": 5835,
      "Ġgettin": 5836,
      "Ġguard": 5837,
      "ĠDa": 5838,
      "ĠDave": 5839,
      "ĠDINGS": 5840,
      "ĠNaz": 5841,
      "Ġshout": 5842,
      "ĠOllie": 5843,
      "ĠReal": 5844,
      "ĠStill": 5845,
      "Ġwhist": 5846,
      "ending": 5847,
      "Ġcomment": 5848,
      "ĠÃĿ": 5849,
      "Ġmeaning": 5850,
      "Ġletters": 5851,
      "Quahog": 5852,
      "ĠHelen": 5853,
      "Ġclaim": 5854,
      "Ġscri": 5855,
      "Ġscreaming": 5856,
      "Ġcrappy": 5857,
      "Ġcarpet": 5858,
      "CHO": 5859,
      "Ġrape": 5860,
      "Ã¤Ã£": 5861,
      "Ġpercent": 5862,
      "Ġperhaps": 5863,
      "Ġphones": 5864,
      "Ġtrail": 5865,
      "Ġclever": 5866,
      "Ġassist": 5867,
      "Ġassume": 5868,
      "Ġ24": 5869,
      "Ġprefer": 5870,
      "Ġdeser": 5871,
      "Ġdesper": 5872,
      "ledge": 5873,
      "Ġprincipal": 5874,
      "Awesome": 5875,
      "TED": 5876,
      "Ġenter": 5877,
      "Ġbroad": 5878,
      "Ġbooze": 5879,
      "Ġannivers": 5880,
      "Ġroller": 5881,
      "Ġfamiliar": 5882,
      "minal": 5883,
      "Ġbastards": 5884,
      "Ġartist": 5885,
      "Ġburned": 5886,
      "Ġaudition": 5887,
      "Ġfilled": 5888,
      "Ġbreathe": 5889,
      "Ġsolve": 5890,
      "Ġtrees": 5891,
      "Ġprepared": 5892,
      "Ġcirc": 5893,
      "Ġcircle": 5894,
      "Ġemployee": 5895,
      "Ġlonely": 5896,
      "Ġtattoo": 5897,
      "ĠChicago": 5898,
      "Ġillegal": 5899,
      "Ġaccompl": 5900,
      "Ġseveral": 5901,
      "ĠACCENT": 5902,
      "ĠHudson": 5903,
      "HER": 5904,
      "IB": 5905,
      "Kind": 5906,
      "LS": 5907,
      "None": 5908,
      "Pr": 5909,
      "Pretty": 5910,
      "car": 5911,
      "free": 5912,
      "gar": 5913,
      "gger": 5914,
      "kind": 5915,
      "mons": 5916,
      "nal": 5917,
      "rang": 5918,
      "since": 5919,
      "ville": 5920,
      "yes": 5921,
      "Ġtum": 5922,
      "Ġtied": 5923,
      "ouch": 5924,
      "Ġwore": 5925,
      "Ġwins": 5926,
      "Ġsed": 5927,
      "had": 5928,
      "Ġyog": 5929,
      "Ġmath": 5930,
      "Ġbene": 5931,
      "Ġgain": 5932,
      "Ġgigg": 5933,
      "Ġlesb": 5934,
      "vere": 5935,
      "Ġpit": 5936,
      "ators": 5937,
      "ooI": 5938,
      "idden": 5939,
      "ĠWed": 5940,
      "ĠTed": 5941,
      "ĠSk": 5942,
      "ĠSan": 5943,
      "ĠSna": 5944,
      "aming": 5945,
      "Ġlips": 5946,
      "ĠBert": 5947,
      "ĠMen": 5948,
      "ĠMill": 5949,
      "Ġknees": 5950,
      "ĠPro": 5951,
      "Ġrip": 5952,
      "Ġneat": 5953,
      "andom": 5954,
      "ĠHarry": 5955,
      "ĠJr": 5956,
      "Ġbutts": 5957,
      "ĠWhatever": 5958,
      "rist": 5959,
      "Ġnowhere": 5960,
      "ĠRome": 5961,
      "ĠRog": 5962,
      "ums": 5963,
      "Ġvet": 5964,
      "Ġours": 5965,
      "Ġexact": 5966,
      "Ġsometime": 5967,
      "Ġamb": 5968,
      "Ġfee": 5969,
      "ĠKaren": 5970,
      "Ġqueen": 5971,
      "Ġputs": 5972,
      "Ġparties": 5973,
      "Ġuncom": 5974,
      "ĠčĠĠ": 5975,
      "Ġchanging": 5976,
      "Ġflu": 5977,
      "Ġhats": 5978,
      "Ã¦Ã¥": 5979,
      "Ġdiarrhea": 5980,
      "Ġtowels": 5981,
      "Ġseries": 5982,
      "ĠBring": 5983,
      "Ġeats": 5984,
      "Ġplanned": 5985,
      "ASH": 5986,
      "Ġcras": 5987,
      "Ġdesign": 5988,
      "cover": 5989,
      "Ġemotion": 5990,
      "Show": 5991,
      "licopter": 5992,
      "ĠJohnson": 5993,
      "screams": 5994,
      "Ġbridge": 5995,
      "Ġpurpose": 5996,
      "Ġfalling": 5997,
      "Ġbully": 5998,
      "bbed": 5999,
      "ĠMickey": 6000,
      "Ġdirection": 6001,
      "Ġconsider": 6002,
      "ITCH": 6003,
      "Ġsugar": 6004,
      "ĠÃİÃ¦": 6005,
      "ĠJeffrey": 6006,
      "Ġbelongs": 6007,
      "ograph": 6008,
      "Ġgroceries": 6009,
      "ĠBabs": 6010,
      "ĠWHIST": 6011,
      "SHOUTS": 6012,
      "azzle": 6013,
      "Ġhomosexual": 6014,
      "Ġvirgin": 6015,
      "conscious": 6016,
      "Ġpodcast": 6017,
      "GIGGLES": 6018,
      "Ġfavour": 6019,
      "Ġexercise": 6020,
      "APPLAUSE": 6021,
      "Five": 6022,
      "Finally": 6023,
      "Knock": 6024,
      "MAL": 6025,
      "MUSIC": 6026,
      "date": 6027,
      "gress": 6028,
      "iI": 6029,
      "ja": 6030,
      "oid": 6031,
      "oons": 6032,
      "pha": 6033,
      "ses": 6034,
      "ued": 6035,
      "Ġ:": 6036,
      "ĠQUAGMIRE": 6037,
      "Ġtu": 6038,
      "Ġwrap": 6039,
      "Ġmult": 6040,
      "ĠIife": 6041,
      "ison": 6042,
      "ito": 6043,
      "Ġdete": 6044,
      "Ġlines": 6045,
      "ett": 6046,
      "Ġnature": 6047,
      "Ġpron": 6048,
      "stone": 6049,
      "asant": 6050,
      "verse": 6051,
      "alf": 6052,
      "ĠSand": 6053,
      "Ġjam": 6054,
      "ĠBand": 6055,
      "ĠBear": 6056,
      "Ġstorm": 6057,
      "ĠCow": 6058,
      "ĠMars": 6059,
      "ĠGreen": 6060,
      "illage": 6061,
      "Ġoutta": 6062,
      "ifts": 6063,
      "Ġsocks": 6064,
      "ĠJeez": 6065,
      "orey": 6066,
      "usive": 6067,
      "ĠFar": 6068,
      "ĠFire": 6069,
      "ĠFred": 6070,
      "Ġloc": 6071,
      "Ġveter": 6072,
      "Ġsaf": 6073,
      "Ġexe": 6074,
      "ĠHead": 6075,
      "ĠQuick": 6076,
      "ĠKnock": 6077,
      "LAR": 6078,
      "Ġsexually": 6079,
      "Ġhomework": 6080,
      "Ġtrad": 6081,
      "Ġpartic": 6082,
      "Ġdrank": 6083,
      "Ġremote": 6084,
      "REN": 6085,
      "Ġassum": 6086,
      "anks": 6087,
      "Ġgrass": 6088,
      "anced": 6089,
      "Ġrecently": 6090,
      "unky": 6091,
      "apping": 6092,
      "Ġfreez": 6093,
      "Ġfactory": 6094,
      "Ġcereal": 6095,
      "medi": 6096,
      "Ġmilitary": 6097,
      "Ġmemories": 6098,
      "Ġwhether": 6099,
      "ĠMont": 6100,
      "ĠMonday": 6101,
      "Ġsending": 6102,
      "HOO": 6103,
      "ĠUnited": 6104,
      "Ġtreated": 6105,
      "Ġdirector": 6106,
      "going": 6107,
      "Laughing": 6108,
      "ĠÃ¥Ã£": 6109,
      "ĠTwitter": 6110,
      "RAIN": 6111,
      "RACK": 6112,
      "ĠWashington": 6113,
      "Ġoppos": 6114,
      "Ġarrested": 6115,
      "Ġswimming": 6116,
      "Ġchampion": 6117,
      "EXHALES": 6118,
      "Ġrisk": 6119,
      "Ġhigher": 6120,
      "Ġmedicine": 6121,
      "Especially": 6122,
      "ĠJennifer": 6123,
      "Ġnewspaper": 6124,
      "Ġanniversary": 6125,
      "BER": 6126,
      "BEAT": 6127,
      "EAL": 6128,
      "NIE": 6129,
      "OL": 6130,
      "Po": 6131,
      "Sl": 6132,
      "bles": 6133,
      "fuI": 6134,
      "lass": 6135,
      "nold": 6136,
      "nival": 6137,
      "pot": 6138,
      "pants": 6139,
      "ras": 6140,
      "uct": 6141,
      "whe": 6142,
      "Ġtone": 6143,
      "hem": 6144,
      "hest": 6145,
      "Ġsight": 6146,
      "onz": 6147,
      "Ġmater": 6148,
      "lls": 6149,
      "Ġdent": 6150,
      "Ġly": 6151,
      "Ġnude": 6152,
      "Ġpink": 6153,
      "Ġpushed": 6154,
      "Ġthumb": 6155,
      "arget": 6156,
      "ences": 6157,
      "rimp": 6158,
      "atory": 6159,
      "Ġhire": 6160,
      "Ġbees": 6161,
      "ooch": 6162,
      "Ġweed": 6163,
      "Ġkitty": 6164,
      "Ġuna": 6165,
      "ĠBO": 6166,
      "lymp": 6167,
      "ĠMore": 6168,
      "eared": 6169,
      "ĠAren": 6170,
      "iron": 6171,
      "Ġriding": 6172,
      "ĠDam": 6173,
      "ander": 6174,
      "inks": 6175,
      "ĠJen": 6176,
      "ĠRay": 6177,
      "ĠRod": 6178,
      "ĠReg": 6179,
      "Ġlog": 6180,
      "hist": 6181,
      "ĠÃĤ": 6182,
      "Ġrandom": 6183,
      "beat": 6184,
      "udes": 6185,
      "thur": 6186,
      "ĠKen": 6187,
      "Ġscare": 6188,
      "were": 6189,
      "Ġcheering": 6190,
      "Ġtalks": 6191,
      "ĠButt": 6192,
      "ĠVan": 6193,
      "ĠVict": 6194,
      "table": 6195,
      "Ġimmedi": 6196,
      "ICK": 6197,
      "Ġmark": 6198,
      "Ġbitches": 6199,
      "Ġheaded": 6200,
      "Ġdial": 6201,
      "pson": 6202,
      "Ġplanet": 6203,
      "GROW": 6204,
      "ĠChip": 6205,
      "ĠChicken": 6206,
      "Ġcutting": 6207,
      "Ġcutaway": 6208,
      "AMATIC": 6209,
      "Ġsignal": 6210,
      "Ġfootage": 6211,
      "ĠThom": 6212,
      "eeze": 6213,
      "Ġdelight": 6214,
      "ÃľÃľÃĳ": 6215,
      "ÃĶÃ¥": 6216,
      "Ġconfidence": 6217,
      "Ġfaster": 6218,
      "Mommy": 6219,
      "ĠJews": 6220,
      "ĠPatty": 6221,
      "ussy": 6222,
      "Ġmillions": 6223,
      "Ġbloody": 6224,
      "onestly": 6225,
      "Ġdoubt": 6226,
      "ĠAnything": 6227,
      "Ġpowerful": 6228,
      "ĠCharles": 6229,
      "ĠAtl": 6230,
      "EAK": 6231,
      "Ġpathetic": 6232,
      "ĠExpress": 6233,
      "Ġestate": 6234,
      "Ġiron": 6235,
      "Ġcenter": 6236,
      "Ġrequest": 6237,
      "UNDER": 6238,
      "Ġmotor": 6239,
      "Ġpolitical": 6240,
      "Ġcounter": 6241,
      "chuckles": 6242,
      "ĠSusie": 6243,
      "Ġrabbit": 6244,
      "magine": 6245,
      "IBRAT": 6246,
      "\",": 6247,
      "',": 6248,
      "100": 6249,
      "Again": 6250,
      "CU": 6251,
      "CAR": 6252,
      "DH": 6253,
      "Hope": 6254,
      "Je": 6255,
      "UTING": 6256,
      "aj": 6257,
      "aire": 6258,
      "both": 6259,
      "gro": 6260,
      "hh": 6261,
      "kins": 6262,
      "mend": 6263,
      "mond": 6264,
      "ply": 6265,
      "tention": 6266,
      "Ġet": 6267,
      "Ġtear": 6268,
      "oust": 6269,
      "Ġaunt": 6270,
      "hey": 6271,
      "ini": 6272,
      "inct": 6273,
      "inary": 6274,
      "Ġsomeday": 6275,
      "Ġmort": 6276,
      "Ġbul": 6277,
      "Ġgrill": 6278,
      "Ġduck": 6279,
      "Ġdue": 6280,
      "Ġcivil": 6281,
      "Ġlad": 6282,
      "Ġlemon": 6283,
      "Ġnational": 6284,
      "Ġped": 6285,
      "stin": 6286,
      "state": 6287,
      "arian": 6288,
      "Ġinfl": 6289,
      "leg": 6290,
      "ooh": 6291,
      "ĠSHO": 6292,
      "ĠSomething": 6293,
      "Ġformer": 6294,
      "Ġrese": 6295,
      "ĠBu": 6296,
      "ĠBer": 6297,
      "ĠCor": 6298,
      "each": 6299,
      "ĠLong": 6300,
      "cted": 6301,
      "Ġath": 6302,
      "Ġaband": 6303,
      "ĠHand": 6304,
      "ĠHard": 6305,
      "Ġupon": 6306,
      "Ġbald": 6307,
      "Ġbache": 6308,
      "ags": 6309,
      "agers": 6310,
      "inder": 6311,
      "ĠRelax": 6312,
      "ĠStay": 6313,
      "ĠStates": 6314,
      "Ġbackwards": 6315,
      "bleep": 6316,
      "Ġvision": 6317,
      "ardon": 6318,
      "ateful": 6319,
      "Ġsack": 6320,
      "ĠEX": 6321,
      "Ġprocess": 6322,
      "ĠKat": 6323,
      "ĠJolly": 6324,
      "Ġhomeless": 6325,
      "Ġkinds": 6326,
      "ĠVIBRAT": 6327,
      "mance": 6328,
      "Ġrack": 6329,
      "Ġrooms": 6330,
      "Ġharm": 6331,
      "Ġaware": 6332,
      "iction": 6333,
      "Ġtrap": 6334,
      "Ġmission": 6335,
      "aughty": 6336,
      "Ġgrade": 6337,
      "ancer": 6338,
      "Ġretire": 6339,
      "Ġchose": 6340,
      "Ġdecl": 6341,
      "Ġdecor": 6342,
      "Ġlatest": 6343,
      "ĠÃĪÃĳ": 6344,
      "Ġlegend": 6345,
      "ĠAmericans": 6346,
      "Ġcompliment": 6347,
      "ĠArgh": 6348,
      "class": 6349,
      "Ġ199": 6350,
      "ĠAnother": 6351,
      "Ġstudio": 6352,
      "Ġfixed": 6353,
      "Ġlanded": 6354,
      "ĠLOUD": 6355,
      "Ġpressure": 6356,
      "Ġblowing": 6357,
      "Ġobvious": 6358,
      "Perfect": 6359,
      "Ġresponsibility": 6360,
      "Ġofficially": 6361,
      "Ġadvant": 6362,
      "Turns": 6363,
      "Ġphysical": 6364,
      "CLEVELAND": 6365,
      "Ġcigarette": 6366,
      "Ġculture": 6367,
      "Ġtastes": 6368,
      "ĠCLICKS": 6369,
      "Ġdisappointed": 6370,
      "Ġwitness": 6371,
      "Ġprofessional": 6372,
      "Ġcaused": 6373,
      "Apparently": 6374,
      "Ġhorses": 6375,
      "Ġgradu": 6376,
      "ĠRepublic": 6377,
      "Ġinnocent": 6378,
      "Ġsafety": 6379,
      "Ġtradition": 6380,
      "01": 6381,
      "21": 6382,
      "70": 6383,
      "BC": 6384,
      "CI": 6385,
      "CELL": 6386,
      "El": 6387,
      "Mo": 6388,
      "Open": 6389,
      "PR": 6390,
      "TO": 6391,
      "bor": 6392,
      "bly": 6393,
      "break": 6394,
      "gment": 6395,
      "jo": 6396,
      "mber": 6397,
      "name": 6398,
      "obe": 6399,
      "pers": 6400,
      "val": 6401,
      "wers": 6402,
      "Ġsour": 6403,
      "haw": 6404,
      "Ġbones": 6405,
      "Ġgiggity": 6406,
      "Ġcreate": 6407,
      "Ġfishing": 6408,
      "etime": 6409,
      "Ġopt": 6410,
      "arant": 6411,
      "rific": 6412,
      "atter": 6413,
      "Ġhelicopter": 6414,
      "Ġinde": 6415,
      "ĠTop": 6416,
      "ĠSDH": 6417,
      "icles": 6418,
      "Ġliqu": 6419,
      "ĠBur": 6420,
      "elled": 6421,
      "ĠCLE": 6422,
      "ĠCamp": 6423,
      "ĠCru": 6424,
      "ĠCorey": 6425,
      "imme": 6426,
      "ĠGame": 6427,
      "ĠGene": 6428,
      "ĠGoose": 6429,
      "ĠAust": 6430,
      "ĠAunt": 6431,
      "alls": 6432,
      "hol": 6433,
      "Ġanus": 6434,
      "iels": 6435,
      "ĠDown": 6436,
      "illing": 6437,
      "ĠHea": 6438,
      "ĠOF": 6439,
      "ĠOlymp": 6440,
      "ĠFriend": 6441,
      "ĠState": 6442,
      "Ġplant": 6443,
      "ulate": 6444,
      "Ġherpes": 6445,
      "Ġrum": 6446,
      "Ġrhy": 6447,
      "empt": 6448,
      "Ġmoves": 6449,
      "Ġscen": 6450,
      "Ġchip": 6451,
      "people": 6452,
      "Ġfaith": 6453,
      "Ġrap": 6454,
      "Ġraised": 6455,
      "Ġelbow": 6456,
      "ĠÂĲ": 6457,
      "Ġphrase": 6458,
      "azon": 6459,
      "Ġslave": 6460,
      "ONNIE": 6461,
      "ĠDoc": 6462,
      "Ġ25": 6463,
      "Ġhardly": 6464,
      "Ġdaddy": 6465,
      "Ġskull": 6466,
      "Ġballoon": 6467,
      "Ġprem": 6468,
      "Ġpassing": 6469,
      "ĠDead": 6470,
      "Ġpoints": 6471,
      "Ġprescri": 6472,
      "Ġpromotion": 6473,
      "THUNDER": 6474,
      "gedy": 6475,
      "Ġmenu": 6476,
      "ĠForce": 6477,
      "Ġcommit": 6478,
      "Ġfully": 6479,
      "Ġcollar": 6480,
      "Ġkissed": 6481,
      "Ġintell": 6482,
      "Ġannoun": 6483,
      "Ġpurcha": 6484,
      "Ġmurdered": 6485,
      "ĠÃıÃĳ": 6486,
      "Ġelev": 6487,
      "minute": 6488,
      "Ġselfish": 6489,
      "ĠÃ¤Ã£ÃŃ": 6490,
      "Ġeduc": 6491,
      "orgeous": 6492,
      "Ġimpressive": 6493,
      "GROANING": 6494,
      "ĠÃİÃĪ": 6495,
      "Ġslowly": 6496,
      "Play": 6497,
      "Ġmiracle": 6498,
      "Ġissues": 6499,
      "believ": 6500,
      "ĠSCREECHING": 6501,
      "ĠSteve": 6502,
      "Ġcartoon": 6503,
      "Ready": 6504,
      "ĠMexico": 6505,
      "ĠiPad": 6506,
      "ĠRussian": 6507,
      "Ġannouncement": 6508,
      "Booze": 6509,
      "Ġoccasion": 6510,
      "nesday": 6511,
      "Ġconvince": 6512,
      "ĠCompany": 6513,
      "Ġpicnic": 6514,
      "ĠEmpire": 6515,
      "Ġtongue": 6516,
      "ĠTHROAT": 6517,
      "ĠGROAN": 6518,
      "Ġscript": 6519,
      "MO": 6520,
      "Merry": 6521,
      "Other": 6522,
      "Sim": 6523,
      "Yo": 6524,
      "Yup": 6525,
      "big": 6526,
      "could": 6527,
      "corn": 6528,
      "fire": 6529,
      "knock": 6530,
      "ns": 6531,
      "oll": 6532,
      "why": 6533,
      "Ġ80": 6534,
      "hee": 6535,
      "Ġbid": 6536,
      "Ġbust": 6537,
      "Ġgifts": 6538,
      "Ġtoast": 6539,
      "Ġfought": 6540,
      "owder": 6541,
      "Ġpois": 6542,
      "stick": 6543,
      "style": 6544,
      "Ġthick": 6545,
      "riger": 6546,
      "Ġhump": 6547,
      "Ġbeep": 6548,
      "Ġweak": 6549,
      "Ġmeasure": 6550,
      "sell": 6551,
      "idy": 6552,
      "Ġune": 6553,
      "Ġdoc": 6554,
      "ĠSqu": 6555,
      "ĠSky": 6556,
      "Ġjud": 6557,
      "Ġjury": 6558,
      "icate": 6559,
      "Ġreck": 6560,
      "ĠBrett": 6561,
      "Ġstress": 6562,
      "ĠCam": 6563,
      "ĠCare": 6564,
      "ĠCap": 6565,
      "ĠCRACK": 6566,
      "Ġyourselves": 6567,
      "ĠPen": 6568,
      "ĠPope": 6569,
      "ĠAbout": 6570,
      "ĠAgain": 6571,
      "hop": 6572,
      "Ġwashing": 6573,
      "Ġallerg": 6574,
      "odd": 6575,
      "oodle": 6576,
      "ĠName": 6577,
      "hanie": 6578,
      "unning": 6579,
      "unte": 6580,
      "Ġshots": 6581,
      "ils": 6582,
      "usion": 6583,
      "epend": 6584,
      "Ġcomed": 6585,
      "ometimes": 6586,
      "ĠEaster": 6587,
      "Ġmakeup": 6588,
      "Ġorange": 6589,
      "ĠMegan": 6590,
      "Ġshoulder": 6591,
      "ĠAndy": 6592,
      "ĠKe": 6593,
      "others": 6594,
      "Ġscar": 6595,
      "rows": 6596,
      "Ġenc": 6597,
      "Ġenemy": 6598,
      "Ġchem": 6599,
      "ubble": 6600,
      "ĠButter": 6601,
      "ĠVinny": 6602,
      "Ġadorable": 6603,
      "Ġflash": 6604,
      "Ġglove": 6605,
      "Ġphony": 6606,
      "order": 6607,
      "Ġslam": 6608,
      "Ġaward": 6609,
      "Ġmoments": 6610,
      "Ġruns": 6611,
      "Ġstayed": 6612,
      "Ġattitude": 6613,
      "ARKING": 6614,
      "ĠCarl": 6615,
      "Ġburied": 6616,
      "CHUCKLING": 6617,
      "ENGINE": 6618,
      "Ġstarving": 6619,
      "Ġpainful": 6620,
      "ĠChew": 6621,
      "Ġpulling": 6622,
      "Ġkissing": 6623,
      "Ġsquare": 6624,
      "Ġ198": 6625,
      "Ġdrag": 6626,
      "Ġbrief": 6627,
      "Ġlanding": 6628,
      "Ġyelling": 6629,
      "Ġsimply": 6630,
      "Ġespecially": 6631,
      "Ġknocked": 6632,
      "WHIST": 6633,
      "Ġimpressed": 6634,
      "uriel": 6635,
      "Ġincredibly": 6636,
      "Ġmassage": 6637,
      "ĠLeague": 6638,
      "Ġcompetition": 6639,
      "Ġchallenge": 6640,
      "DRAMATIC": 6641,
      "Ġfraud": 6642,
      "Ġnegative": 6643,
      "Ġpancakes": 6644,
      "ĠJoyce": 6645,
      "Ġmuseum": 6646,
      "Ġlesbian": 6647,
      "Ġopposite": 6648,
      "AUD": 6649,
      "Br": 6650,
      "Ever": 6651,
      "Eng": 6652,
      "Easy": 6653,
      "Gentlemen": 6654,
      "Jesus": 6655,
      "Ma": 6656,
      "Over": 6657,
      "Sm": 6658,
      "Te": 6659,
      "apped": 6660,
      "cake": 6661,
      "cred": 6662,
      "ckey": 6663,
      "des": 6664,
      "ij": 6665,
      "ok": 6666,
      "rink": 6667,
      "tain": 6668,
      "ware": 6669,
      "zed": 6670,
      "Ġč": 6671,
      "Ġaisle": 6672,
      "inting": 6673,
      "hamed": 6674,
      "ona": 6675,
      "Ġmister": 6676,
      "Ġmaid": 6677,
      "llar": 6678,
      "Ġgather": 6679,
      "Ġdar": 6680,
      "Ġdrew": 6681,
      "Ġlazy": 6682,
      "eted": 6683,
      "Ġnation": 6684,
      "Ġnaughty": 6685,
      "Ġpour": 6686,
      "Ġpred": 6687,
      "stic": 6688,
      "stage": 6689,
      "ena": 6690,
      "aton": 6691,
      "Ġbeans": 6692,
      "verage": 6693,
      "iches": 6694,
      "Ġlick": 6695,
      "ĠBow": 6696,
      "ĠBUZZ": 6697,
      "Ġstool": 6698,
      "ĠMel": 6699,
      "ĠGay": 6700,
      "ĠGen": 6701,
      "ĠPot": 6702,
      "ĠPrest": 6703,
      "ĠAL": 6704,
      "ĠLi": 6705,
      "ĠLight": 6706,
      "Ġanger": 6707,
      "Ġanti": 6708,
      "rove": 6709,
      "Ġripped": 6710,
      "Ġalley": 6711,
      "ĠDem": 6712,
      "ookie": 6713,
      "race": 6714,
      "herry": 6715,
      "ĠNone": 6716,
      "hings": 6717,
      "ĠJake": 6718,
      "Ġsuicide": 6719,
      "Ġlock": 6720,
      "Ġload": 6721,
      "asty": 6722,
      "olo": 6723,
      "Ġcomb": 6724,
      "Ġspons": 6725,
      "bered": 6726,
      "Ġproced": 6727,
      "ĠQuiet": 6728,
      "think": 6729,
      "ĠKim": 6730,
      "ĠKent": 6731,
      "Ġscroll": 6732,
      "Ġnights": 6733,
      "ints": 6734,
      "Ġslap": 6735,
      "Ġschools": 6736,
      "Ġtrave": 6737,
      "Ġserved": 6738,
      "Ġretarded": 6739,
      "Ġaccording": 6740,
      "Ġskip": 6741,
      "Ġstrugg": 6742,
      "ARRAT": 6743,
      "ension": 6744,
      "Ġhits": 6745,
      "Ġdesert": 6746,
      "Ġbury": 6747,
      "Ġhorny": 6748,
      "ĠSpan": 6749,
      "Ġairplane": 6750,
      "ĠBlue": 6751,
      "Ġgrave": 6752,
      "Ġmetal": 6753,
      "Ġcommun": 6754,
      "Ġforgotten": 6755,
      "GASPING": 6756,
      "ietnam": 6757,
      "Ġkicking": 6758,
      "cheering": 6759,
      "Ġsmooth": 6760,
      "Ġstopping": 6761,
      "Ġrolling": 6762,
      "ELLS": 6763,
      "Ġpretending": 6764,
      "Ġprofile": 6765,
      "Ġbanana": 6766,
      "abba": 6767,
      "Ġlosers": 6768,
      "Ġmask": 6769,
      "Ġescap": 6770,
      "COFF": 6771,
      "ĠHarvard": 6772,
      "Ġsatisf": 6773,
      "Ġactivity": 6774,
      "ĠTyler": 6775,
      "Ġcancel": 6776,
      "Ġconcerned": 6777,
      "Ġwishes": 6778,
      "Ġbodies": 6779,
      "ĠNetflix": 6780,
      "Ġappointment": 6781,
      "ĠRomeo": 6782,
      "Ġexecut": 6783,
      "Ġimmediately": 6784,
      "ARRATOR": 6785,
      "Bob": 6786,
      "Jo": 6787,
      "Jack": 6788,
      "Joh": 6789,
      "Miss": 6790,
      "PITCH": 6791,
      "Singing": 6792,
      "SCOFF": 6793,
      "Way": 6794,
      "bing": 6795,
      "eed": 6796,
      "fit": 6797,
      "five": 6798,
      "gency": 6799,
      "hony": 6800,
      "kn": 6801,
      "law": 6802,
      "laughter": 6803,
      "mar": 6804,
      "uz": 6805,
      "uela": 6806,
      "yond": 6807,
      "Ġing": 6808,
      "Ġsaus": 6809,
      "ont": 6810,
      "Ġbug": 6811,
      "isher": 6812,
      "Ġgig": 6813,
      "iters": 6814,
      "iture": 6815,
      "Ġcris": 6816,
      "Ġcongratulations": 6817,
      "Ġpers": 6818,
      "Ġpound": 6819,
      "Ġmel": 6820,
      "Ġkarate": 6821,
      "aly": 6822,
      "ĠTalk": 6823,
      "ĠSN": 6824,
      "ĠSometimes": 6825,
      "icing": 6826,
      "Ġrele": 6827,
      "Ġreward": 6828,
      "ĠBang": 6829,
      "ĠBLOW": 6830,
      "ĠPet": 6831,
      "ĠPass": 6832,
      "ĠAT": 6833,
      "chor": 6834,
      "hole": 6835,
      "ĠLu": 6836,
      "ĠLind": 6837,
      "ĠDi": 6838,
      "ĠDor": 6839,
      "ĠDNA": 6840,
      "ĠHON": 6841,
      "ĠHurry": 6842,
      "Ġalbum": 6843,
      "Ġgoodbye": 6844,
      "Ġspaghetti": 6845,
      "ĠÃļ": 6846,
      "Ġprop": 6847,
      "Ġclue": 6848,
      "uding": 6849,
      "Ġ'\"": 6850,
      "ĠKiss": 6851,
      "acc": 6852,
      "Ġscumb": 6853,
      "Ġhelps": 6854,
      "Ġtrunk": 6855,
      "Step": 6856,
      "ÃĩÃ¥": 6857,
      "Ġuns": 6858,
      "oster": 6859,
      "Ã¤ÃŃ": 6860,
      "inton": 6861,
      "onsuela": 6862,
      "Ġshamp": 6863,
      "Ġperform": 6864,
      "Ġpositive": 6865,
      "Ġeaten": 6866,
      "Ġswallow": 6867,
      "Ġrecom": 6868,
      "Ġcrit": 6869,
      "Ġstring": 6870,
      "Ġsett": 6871,
      "Ġsetting": 6872,
      "ĠChina": 6873,
      "IENCE": 6874,
      "Ġpassword": 6875,
      "Ġmessing": 6876,
      "Ġsinger": 6877,
      "Ġwinter": 6878,
      "ĠÃĩÃ¤": 6879,
      "Ġlaughs": 6880,
      "ĠScrew": 6881,
      "ĠArthur": 6882,
      "Ġexplos": 6883,
      "Ġwarn": 6884,
      "Ġsalt": 6885,
      "prise": 6886,
      "aptop": 6887,
      "Ġsteps": 6888,
      "Ġsimilar": 6889,
      "Ġcorpor": 6890,
      "Ġburning": 6891,
      "Ġexpecting": 6892,
      "Ġbowling": 6893,
      "Ġimpression": 6894,
      "Ġteaching": 6895,
      "related": 6896,
      "ĠItaly": 6897,
      "Ġcurrent": 6898,
      "grunts": 6899,
      "nament": 6900,
      "ĠSimmons": 6901,
      "Ġemployees": 6902,
      "ĠWheel": 6903,
      "ĠJulie": 6904,
      "Ġsharp": 6905,
      "ĠCraig": 6906,
      "Ġperformance": 6907,
      "Ġcigarettes": 6908,
      "FARTS": 6909,
      "ĠLando": 6910,
      "Ġwasted": 6911,
      "Ġbasketball": 6912,
      "Ġprostitute": 6913,
      "Ġtrophy": 6914,
      "Ġsauce": 6915,
      "ĠWednesday": 6916,
      "LARM": 6917,
      "believable": 6918,
      "Ġprocedure": 6919,
      "SCOFFS": 6920,
      "ACK": 6921,
      "Absolutely": 6922,
      "COM": 6923,
      "HIGH": 6924,
      "ILY": 6925,
      "La": 6926,
      "Life": 6927,
      "Leave": 6928,
      "Must": 6929,
      "PH": 6930,
      "PLO": 6931,
      "Talk": 6932,
      "Tube": 6933,
      "aign": 6934,
      "iqu": 6935,
      "lers": 6936,
      "moon": 6937,
      "phew": 6938,
      "sk": 6939,
      "school": 6940,
      "uum": 6941,
      "vie": 6942,
      "viously": 6943,
      "viron": 6944,
      "water": 6945,
      "yal": 6946,
      "incess": 6947,
      "Ġwra": 6948,
      "Ġwip": 6949,
      "Ġske": 6950,
      "Ġsite": 6951,
      "Ġsides": 6952,
      "ĠIda": 6953,
      "Ġbuff": 6954,
      "ann": 6955,
      "Ġding": 6956,
      "Ġded": 6957,
      "Ġdough": 6958,
      "Ġcrew": 6959,
      "Ġfurn": 6960,
      "oria": 6961,
      "Ġlack": 6962,
      "Ġpha": 6963,
      "otes": 6964,
      "ribut": 6965,
      "Ġheight": 6966,
      "Ġhose": 6967,
      "uten": 6968,
      "Ġearth": 6969,
      "ĠTea": 6970,
      "ĠToday": 6971,
      "aman": 6972,
      "amus": 6973,
      "ĠBest": 6974,
      "ĠBEEPS": 6975,
      "Ġstret": 6976,
      "Ġstyle": 6977,
      "Ġstroke": 6978,
      "ells": 6979,
      "ĠCa": 6980,
      "ĠMil": 6981,
      "ĠGirls": 6982,
      "ĠAa": 6983,
      "Ġriver": 6984,
      "Ġrice": 6985,
      "Ġnephew": 6986,
      "Ġhereby": 6987,
      "ĠHartman": 6988,
      "aud": 6989,
      "agne": 6990,
      "usic": 6991,
      "ĠOPEN": 6992,
      "iger": 6993,
      "essor": 6994,
      "Ġusual": 6995,
      "ĠFun": 6996,
      "ĠStarb": 6997,
      "Ġlover": 6998,
      "Ġbackpack": 6999,
      "Ġvar": 7000,
      "oli": 7001,
      "venge": 7002,
      "ardo": 7003,
      "ept": 7004,
      "ends": 7005,
      "Ġspring": 7006,
      "Ġspray": 7007,
      "best": 7008,
      "ĠEric": 7009,
      "Ġdownstairs": 7010,
      "Ġclam": 7011,
      "Ġfest": 7012,
      "Ġbless": 7013,
      "ĠKate": 7014,
      "aco": 7015,
      "Ġhomecoming": 7016,
      "Ġcraw": 7017,
      "ĠVader": 7018,
      "Ġbelieved": 7019,
      "Ġremain": 7020,
      "Ġadjust": 7021,
      "Ġcourage": 7022,
      "Ġarg": 7023,
      "Ã¦Ãĳ": 7024,
      "Ã¦ÃŃÃľÃľ": 7025,
      "Ġmoms": 7026,
      "Ġassign": 7027,
      "Ġending": 7028,
      "standing": 7029,
      "Ġskills": 7030,
      "Ġstands": 7031,
      "Ġtomato": 7032,
      "ooner": 7033,
      "Ġdealing": 7034,
      "comes": 7035,
      "does": 7036,
      "Forget": 7037,
      "rics": 7038,
      "ĠScotty": 7039,
      "Ġcollect": 7040,
      "ĠSec": 7041,
      "ĠSeven": 7042,
      "IRD": 7043,
      "vention": 7044,
      "ĠRoad": 7045,
      "until": 7046,
      "Ġmembers": 7047,
      "Ġvideos": 7048,
      "Ġangel": 7049,
      "ĠComing": 7050,
      "Ġcampaign": 7051,
      "ĠTwain": 7052,
      "Ġreminds": 7053,
      "Ġexperien": 7054,
      "Ġrubber": 7055,
      "Ġdisappear": 7056,
      "Another": 7057,
      "grunting": 7058,
      "Ġholes": 7059,
      "Ġsilence": 7060,
      "imbaugh": 7061,
      "Ġcontinues": 7062,
      "playing": 7063,
      "Black": 7064,
      "Ġoperation": 7065,
      "Herbert": 7066,
      "Ġeffort": 7067,
      "ĠPole": 7068,
      "Ġvolunte": 7069,
      "Ġtoothp": 7070,
      "ĠLoggia": 7071,
      "Ġblanket": 7072,
      "ĠHorace": 7073,
      "ĠSuperstore": 7074,
      "ĠHolmes": 7075,
      "Ġtherapy": 7076,
      "Ġdamage": 7077,
      "Ġrepeat": 7078,
      "Ġpissed": 7079,
      "Ġbehav": 7080,
      "PLAYING": 7081,
      "Ġpudding": 7082,
      "Ġslightly": 7083,
      "Ġtitle": 7084,
      "UPBEAT": 7085,
      "ĠDEEPLY": 7086,
      "Ġuncomfortable": 7087,
      "Ġadvantage": 7088,
      "ĠPreston": 7089,
      "ĠSpanish": 7090,
      "John": 7091,
      "PITCHED": 7092,
      "vironment": 7093,
      "Cut": 7094,
      "Crap": 7095,
      "DE": 7096,
      "Dou": 7097,
      "Fl": 7098,
      "FUL": 7099,
      "Hand": 7100,
      "James": 7101,
      "MOAN": 7102,
      "Sup": 7103,
      "SES": 7104,
      "Since": 7105,
      "bon": 7106,
      "cr": 7107,
      "hour": 7108,
      "high": 7109,
      "little": 7110,
      "lusive": 7111,
      "mouth": 7112,
      "nity": 7113,
      "person": 7114,
      "vol": 7115,
      "wr": 7116,
      "wing": 7117,
      "Ãķ": 7118,
      "Ġtale": 7119,
      "rell": 7120,
      "oning": 7121,
      "Ġmer": 7122,
      "Ġmama": 7123,
      "ĠIot": 7124,
      "Ġbills": 7125,
      "Ġgoof": 7126,
      "Ġgorgeous": 7127,
      "Ġdies": 7128,
      "Ġdip": 7129,
      "Ġcave": 7130,
      "Ġcaf": 7131,
      "Ġfence": 7132,
      "orking": 7133,
      "Ġthin": 7134,
      "ota": 7135,
      "Ġhip": 7136,
      "Ġhog": 7137,
      "Ġham": 7138,
      "Ġbeard": 7139,
      "Ġbeating": 7140,
      "Ġwebs": 7141,
      "ĠWant": 7142,
      "alm": 7143,
      "Ġrehe": 7144,
      "Ġrelease": 7145,
      "Ġliar": 7146,
      "eller": 7147,
      "ĠCe": 7148,
      "ĠCost": 7149,
      "ĠMine": 7150,
      "ĠMost": 7151,
      "ĠMatt": 7152,
      "ĠGumb": 7153,
      "ĠPan": 7154,
      "ĠLin": 7155,
      "ĠDancing": 7156,
      "Ġrights": 7157,
      "raw": 7158,
      "ifth": 7159,
      "ĠHope": 7160,
      "Ġupside": 7161,
      "Ġbacon": 7162,
      "ĠJunior": 7163,
      "Ġ\"'": 7164,
      "uses": 7165,
      "Ġaside": 7166,
      "ĠRoy": 7167,
      "ĠRandy": 7168,
      "Ġloan": 7169,
      "ulation": 7170,
      "ongress": 7171,
      "Ġspoon": 7172,
      "Ġsperm": 7173,
      "ĠÃ¡": 7174,
      "ĠEasy": 7175,
      "ĠWeek": 7176,
      "Ġcloud": 7177,
      "acky": 7178,
      "ĠKISS": 7179,
      "cient": 7180,
      "Ġwriters": 7181,
      "Stupid": 7182,
      "Ġtalkin": 7183,
      "Ġbrush": 7184,
      "Ġunif": 7185,
      "Ġstuffed": 7186,
      "Donald": 7187,
      "pense": 7188,
      "Ġserv": 7189,
      "Ġcooler": 7190,
      "Ġrecent": 7191,
      "Ġcruise": 7192,
      "Ġstruck": 7193,
      "Ġstranger": 7194,
      "ĠCanada": 7195,
      "Ġhighway": 7196,
      "SION": 7197,
      "headed": 7198,
      "pected": 7199,
      "Being": 7200,
      "ĠSpider": 7201,
      "ĠSpooner": 7202,
      "ĠDidn": 7203,
      "Ġearned": 7204,
      "Ġimprov": 7205,
      "Ġpriest": 7206,
      "Ġprize": 7207,
      "Ġbrains": 7208,
      "Ġhumor": 7209,
      "Ġwindows": 7210,
      "ĠSecond": 7211,
      "ĠAlan": 7212,
      "ĠArm": 7213,
      "Ġconfusing": 7214,
      "Ġdrawer": 7215,
      "Ġobject": 7216,
      "Ġbride": 7217,
      "ĠFran": 7218,
      "ĠFrancis": 7219,
      "bbing": 7220,
      "Ġextreme": 7221,
      "ĠAmazon": 7222,
      "Ġpackage": 7223,
      "Ġedge": 7224,
      "laughing": 7225,
      "Ġpatient": 7226,
      "Ġjackass": 7227,
      "Ġburger": 7228,
      "Ġbillion": 7229,
      "Ġprepare": 7230,
      "ĠSmith": 7231,
      "Ġstinks": 7232,
      "Ġalcoholic": 7233,
      "ĠRocky": 7234,
      "ĠJuliet": 7235,
      "Ġshark": 7236,
      "ĠMEG": 7237,
      "Ġghosts": 7238,
      "Ġscratch": 7239,
      "Ġcreepy": 7240,
      "ĠEuropean": 7241,
      "Ġapproach": 7242,
      "Better": 7243,
      "ĠCenter": 7244,
      "Ġopin": 7245,
      "American": 7246,
      "Ġabortion": 7247,
      "Ġdesperate": 7248,
      "Ġmaterial": 7249,
      "Ġresearch": 7250,
      "ĠLOUDLY": 7251,
      "rigerator": 7252,
      "23": 7253,
      "CAT": 7254,
      "Fi": 7255,
      "GAN": 7256,
      "Int": 7257,
      "IAN": 7258,
      "Lot": 7259,
      "Name": 7260,
      "Ob": 7261,
      "PA": 7262,
      "Pol": 7263,
      "SL": 7264,
      "TOM": 7265,
      "Wonder": 7266,
      "bid": 7267,
      "iers": 7268,
      "ients": 7269,
      "lam": 7270,
      "life": 7271,
      "ration": 7272,
      "ture": 7273,
      "want": 7274,
      "Ġtune": 7275,
      "Ġast": 7276,
      "heh": 7277,
      "iner": 7278,
      "inch": 7279,
      "Ġwire": 7280,
      "Ġsin": 7281,
      "ĠIm": 7282,
      "Ġbucket": 7283,
      "Ġbattle": 7284,
      "Ġgrew": 7285,
      "Ġfed": 7286,
      "Ġpath": 7287,
      "stead": 7288,
      "arters": 7289,
      "eson": 7290,
      "lection": 7291,
      "Ġwears": 7292,
      "ĠWi": 7293,
      "ĠWind": 7294,
      "Ġult": 7295,
      "ĠSin": 7296,
      "Ġjar": 7297,
      "Ġjew": 7298,
      "Ġjunk": 7299,
      "ication": 7300,
      "Ġforced": 7301,
      "ĠBus": 7302,
      "ĠBull": 7303,
      "ĠMer": 7304,
      "ĠGonna": 7305,
      "ĠGhost": 7306,
      "ĠLew": 7307,
      "ĠLive": 7308,
      "ĠLond": 7309,
      "ĠLimbaugh": 7310,
      "odes": 7311,
      "ĠDes": 7312,
      "ĠDep": 7313,
      "ĠDude": 7314,
      "ĠNO": 7315,
      "ĠHoo": 7316,
      "ĠHul": 7317,
      "Ġshit": 7318,
      "eless": 7319,
      "arting": 7320,
      "Ġashamed": 7321,
      "ĠOff": 7322,
      "ĠOVER": 7323,
      "ĠFer": 7324,
      "ĠFish": 7325,
      "ĠFAR": 7326,
      "ĠFoot": 7327,
      "ĠRita": 7328,
      "Ġspice": 7329,
      "Ġrush": 7330,
      "becue": 7331,
      "ERA": 7332,
      "Ġevents": 7333,
      "Ġnewest": 7334,
      "ĠKid": 7335,
      "ĠKill": 7336,
      "Ġtwin": 7337,
      "cience": 7338,
      "Ġjoining": 7339,
      "ANG": 7340,
      "ANT": 7341,
      "izes": 7342,
      "Ġactress": 7343,
      "Ġbelow": 7344,
      "soci": 7345,
      "ressing": 7346,
      "them": 7347,
      "ĠVer": 7348,
      "ĠVietnam": 7349,
      "CHING": 7350,
      "ashion": 7351,
      "Ġwaitress": 7352,
      "Ġadults": 7353,
      "ĠSox": 7354,
      "Ã¦Ãı": 7355,
      "aze": 7356,
      "ports": 7357,
      "Ġapples": 7358,
      "ATING": 7359,
      "Ġtrapped": 7360,
      "Ġtraffic": 7361,
      "Ġmommy": 7362,
      "REA": 7363,
      "shot": 7364,
      "ottom": 7365,
      "Ġattend": 7366,
      "Ġchoices": 7367,
      "Ġsitcom": 7368,
      "ĠChurch": 7369,
      "oopi": 7370,
      "Ġdifferences": 7371,
      "ĠÃĪÃŃ": 7372,
      "without": 7373,
      "ĠDean": 7374,
      "Ġprint": 7375,
      "ÃĬÃ¦Ã¤": 7376,
      "Ġbarbecue": 7377,
      "Ġinstru": 7378,
      "Ġbrace": 7379,
      "Ġmeth": 7380,
      "Ġpainted": 7381,
      "ÃľÃľÃ¦ÃŃÃľÃľ": 7382,
      "ĠAlana": 7383,
      "ĠChef": 7384,
      "Ġdefend": 7385,
      "ĠArmy": 7386,
      "Ġbrill": 7387,
      "ĠCoast": 7388,
      "ĠAnyone": 7389,
      "cycle": 7390,
      "Ġdumped": 7391,
      "Ġcamer": 7392,
      "Ġjumping": 7393,
      "affe": 7394,
      "Ġteenagers": 7395,
      "cessary": 7396,
      "Ġmodern": 7397,
      "Ġsilent": 7398,
      "Ġtalented": 7399,
      "ĠStephanie": 7400,
      "Enjoy": 7401,
      "Ġconnection": 7402,
      "Ġdistracted": 7403,
      "Ġconstantly": 7404,
      "Ġinvestig": 7405,
      "Ġcocktail": 7406,
      "Ġdirectly": 7407,
      "Ġcoolest": 7408,
      "Ġignore": 7409,
      "Ġstrangers": 7410,
      "ĠschooI": 7411,
      "ĠBrenda": 7412,
      "Ġpubl": 7413,
      "eresting": 7414,
      "Ġemergency": 7415,
      "Ġtumor": 7416,
      "ĠfeeI": 7417,
      "Poor": 7418,
      "AC": 7419,
      "ALARM": 7420,
      "Bring": 7421,
      "CAM": 7422,
      "Duck": 7423,
      "Dude": 7424,
      "Face": 7425,
      "Giggity": 7426,
      "Has": 7427,
      "High": 7428,
      "Kevin": 7429,
      "Lo": 7430,
      "PU": 7431,
      "Us": 7432,
      "WIND": 7433,
      "aving": 7434,
      "ban": 7435,
      "dom": 7436,
      "dri": 7437,
      "eve": 7438,
      "fin": 7439,
      "gl": 7440,
      "give": 7441,
      "great": 7442,
      "iac": 7443,
      "lot": 7444,
      "mother": 7445,
      "via": 7446,
      "|\"": 7447,
      "Ġach": 7448,
      "Ġauction": 7449,
      "Ġwise": 7450,
      "Ġwrest": 7451,
      "Ġsen": 7452,
      "Ġsam": 7453,
      "ĠII": 7454,
      "ĠIast": 7455,
      "isions": 7456,
      "Ġgroom": 7457,
      "itions": 7458,
      "anas": 7459,
      "anic": 7460,
      "Ġcable": 7461,
      "Ġtoes": 7462,
      "Ġfist": 7463,
      "Ġfile": 7464,
      "Ġlun": 7465,
      "Ġlaptop": 7466,
      "Ġnu": 7467,
      "Ġnin": 7468,
      "Ġpages": 7469,
      "Ġpharmacy": 7470,
      "stood": 7471,
      "Ġol": 7472,
      "arc": 7473,
      "ench": 7474,
      "athered": 7475,
      "Ġbecoming": 7476,
      "asing": 7477,
      "ĠWA": 7478,
      "ĠWat": 7479,
      "Ġunt": 7480,
      "lder": 7481,
      "alth": 7482,
      "adian": 7483,
      "Ġreve": 7484,
      "Ġreci": 7485,
      "Ġreverse": 7486,
      "ĠBEEPING": 7487,
      "ĠCI": 7488,
      "ĠCorn": 7489,
      "ĠCLO": 7490,
      "ĠCrap": 7491,
      "ĠMs": 7492,
      "ĠProbably": 7493,
      "ĠAb": 7494,
      "ĠLos": 7495,
      "ĠLiam": 7496,
      "cest": 7497,
      "odka": 7498,
      "ĠDri": 7499,
      "ooks": 7500,
      "hern": 7501,
      "hange": 7502,
      "opher": 7503,
      "Ġbail": 7504,
      "ĠJam": 7505,
      "ĠJane": 7506,
      "ĠJenny": 7507,
      "eling": 7508,
      "agement": 7509,
      "ĠFinn": 7510,
      "ĠRea": 7511,
      "Ġlookin": 7512,
      "ositively": 7513,
      "Ġdeb": 7514,
      "Ġdefe": 7515,
      "ĠÃĮ": 7516,
      "ĠEast": 7517,
      "akin": 7518,
      "Ġroast": 7519,
      "Ġrode": 7520,
      "Ġclient": 7521,
      "Ġhappiness": 7522,
      "Ġkidney": 7523,
      "abeth": 7524,
      "Ġblond": 7525,
      "three": 7526,
      "ĠKenn": 7527,
      "Ġscree": 7528,
      "Ġjoking": 7529,
      "Ġjoined": 7530,
      "Ġmuff": 7531,
      "Ġenvironment": 7532,
      "Ġlottery": 7533,
      "these": 7534,
      "Ġbadly": 7535,
      "ÃĩÃĵ": 7536,
      "Ġminor": 7537,
      "Ġchase": 7538,
      "Ġwaiter": 7539,
      "Ġflush": 7540,
      "ccer": 7541,
      "Ġcoup": 7542,
      "ĠUhp": 7543,
      "Ġsounded": 7544,
      "Ġinsult": 7545,
      "Ġcrotch": 7546,
      "Ġcompan": 7547,
      "ĠChief": 7548,
      "Ġwalks": 7549,
      "Ġpassion": 7550,
      "Ġsigned": 7551,
      "ÃĬÃľÃľÃĳ": 7552,
      "Ġbudget": 7553,
      "Ġbuddies": 7554,
      "Ġcardinal": 7555,
      "Ġhalfway": 7556,
      "ÃľÃľÃŃÃľÃľ": 7557,
      "Ġmachines": 7558,
      "Ġ500": 7559,
      "Ġdefense": 7560,
      "Ġcharges": 7561,
      "Ġanswers": 7562,
      "Ġbased": 7563,
      "Ġpopcorn": 7564,
      "Ġobl": 7565,
      "Ġbegins": 7566,
      "Ġdressing": 7567,
      "Ġpurple": 7568,
      "IMS": 7569,
      "Ġdisturb": 7570,
      "Ġcelebrities": 7571,
      "Ġfarted": 7572,
      "Ġcolon": 7573,
      "Ġhistor": 7574,
      "coln": 7575,
      "ĠCharm": 7576,
      "Ġabsolute": 7577,
      "Ġfilling": 7578,
      "Ġstronger": 7579,
      "Ġfries": 7580,
      "ĠÃİÃŃ": 7581,
      "Ġfailure": 7582,
      "Ġsandwiches": 7583,
      "Ġindust": 7584,
      "Ġavoid": 7585,
      "ĠDoesn": 7586,
      "GUL": 7587,
      "Ġpolitics": 7588,
      "Ġflew": 7589,
      "Ġconnect": 7590,
      "CLEARS": 7591,
      "Ġarrived": 7592,
      "Ġtechnology": 7593,
      "Ġmoron": 7594,
      "ĠLauren": 7595,
      "ĠSOUND": 7596,
      "Ġprovide": 7597,
      "piece": 7598,
      "Ġcustomers": 7599,
      "ĠKorean": 7600,
      "Ġexhausted": 7601,
      "ĠCRASH": 7602,
      "GUNSHO": 7603,
      "phant": 7604,
      "UMBLING": 7605,
      "ĠBatman": 7606,
      "Ġdelivery": 7607,
      "ĠCLEVELAND": 7608,
      "ĠCruise": 7609,
      "Ġelevator": 7610,
      "Ġdarling": 7611,
      "Ġshampoo": 7612,
      "Ġrecommend": 7613,
      "Ġfurniture": 7614,
      "ĠLondon": 7615,
      "ÃľÃľÃŃÃľÃľÃĬÃľÃľÃĳ": 7616,
      "Aren": 7617,
      "Cha": 7618,
      "Follow": 7619,
      "Hell": 7620,
      "Land": 7621,
      "Rock": 7622,
      "Rob": 7623,
      "Sho": 7624,
      "ai": 7625,
      "cles": 7626,
      "cular": 7627,
      "cony": 7628,
      "dad": 7629,
      "eat": 7630,
      "eft": 7631,
      "four": 7632,
      "hot": 7633,
      "lter": 7634,
      "uana": 7635,
      "watch": 7636,
      "yon": 7637,
      "Ġtan": 7638,
      "Ġtube": 7639,
      "remy": 7640,
      "Ġwand": 7641,
      "Ġwond": 7642,
      "Ġsons": 7643,
      "oni": 7644,
      "isa": 7645,
      "Ġgarden": 7646,
      "Ġdust": 7647,
      "Ġdining": 7648,
      "Ġcough": 7649,
      "Ġcord": 7650,
      "Ġtoad": 7651,
      "Ġtool": 7652,
      "Ġled": 7653,
      "Ġpure": 7654,
      "Ġpowers": 7655,
      "stery": 7656,
      "arl": 7657,
      "eno": 7658,
      "Ġhidden": 7659,
      "utiful": 7660,
      "ĠWOMAN": 7661,
      "ales": 7662,
      "always": 7663,
      "ĠToy": 7664,
      "ĠSil": 7665,
      "ĠShar": 7666,
      "Ġjelly": 7667,
      "ĠBELL": 7668,
      "Ġstabb": 7669,
      "elle": 7670,
      "ellow": 7671,
      "ĠMust": 7672,
      "ĠMuriel": 7673,
      "ĠGiant": 7674,
      "ĠPost": 7675,
      "Heh": 7676,
      "ĠAII": 7677,
      "ĠAlex": 7678,
      "ĠLeg": 7679,
      "Ġank": 7680,
      "Ġanchor": 7681,
      "ĠDra": 7682,
      "ĠNic": 7683,
      "ĠNavy": 7684,
      "Ġshrimp": 7685,
      "ĠJones": 7686,
      "agon": 7687,
      "ila": 7688,
      "igan": 7689,
      "Ġsuits": 7690,
      "ĠĠĠĠ": 7691,
      "ĠRoss": 7692,
      "ĠStan": 7693,
      "Ġloving": 7694,
      "Ġplus": 7695,
      "Ġvom": 7696,
      "iren": 7697,
      "Ġrate": 7698,
      "being": 7699,
      "fered": 7700,
      "bery": 7701,
      "Ġroot": 7702,
      "izard": 7703,
      "Ġactive": 7704,
      "Ġotherwise": 7705,
      "Ġdram": 7706,
      "nect": 7707,
      "Ġchef": 7708,
      "Ġcarrying": 7709,
      "Ġcared": 7710,
      "Ġchain": 7711,
      "ICKE": 7712,
      "Ġsupply": 7713,
      "Ġcouples": 7714,
      "Ġboots": 7715,
      "Ġstops": 7716,
      "ĠHoward": 7717,
      "Ġharass": 7718,
      "umpkin": 7719,
      "Ã¦Ã£": 7720,
      "Ġinsist": 7721,
      "Ġassure": 7722,
      "Ġreserv": 7723,
      "Ġopens": 7724,
      "ĠShirt": 7725,
      "acting": 7726,
      "should": 7727,
      "Ġattempt": 7728,
      "ÃıÃŃ": 7729,
      "Ġreturned": 7730,
      "Ġholy": 7731,
      "Ġhockey": 7732,
      "Ġprank": 7733,
      "ÃĬÃŃ": 7734,
      "Ġbarn": 7735,
      "ĠBlock": 7736,
      "Ġcommitted": 7737,
      "iggy": 7738,
      "onym": 7739,
      "ELLING": 7740,
      "Ġsniff": 7741,
      "ipper": 7742,
      "Ġsooner": 7743,
      "ĠArt": 7744,
      "Ġfreed": 7745,
      "Almost": 7746,
      "ĠAnne": 7747,
      "IMIT": 7748,
      "ĠNeeson": 7749,
      "ĠBoys": 7750,
      "Ġnormally": 7751,
      "Ġclosing": 7752,
      "Ġgrandfather": 7753,
      "achel": 7754,
      "ĠEliz": 7755,
      "Ġentirely": 7756,
      "Ġproducer": 7757,
      "Unfortunately": 7758,
      "ĠGrandma": 7759,
      "ĠLeon": 7760,
      "Ġsilver": 7761,
      "Ġfantasy": 7762,
      "ĠSuperman": 7763,
      "ÃŃÃľÃľÃĵ": 7764,
      "Ġframe": 7765,
      "araoke": 7766,
      "Ġtaped": 7767,
      "Ġscient": 7768,
      "rovidence": 7769,
      "Ġvictory": 7770,
      "Ġeventually": 7771,
      "Ġpuppet": 7772,
      "ĠMexican": 7773,
      "handed": 7774,
      "ĠRussia": 7775,
      "Ġengine": 7776,
      "ĠBetty": 7777,
      "Ġcanceled": 7778,
      "Swanson": 7779,
      "Ġtherapist": 7780,
      "ĠWoody": 7781,
      "Ġdegree": 7782,
      "Ġlobster": 7783,
      "Ġpotatoes": 7784,
      "Ġwiener": 7785,
      "ĠNazi": 7786,
      "Ġassumed": 7787,
      "Ġmortg": 7788,
      "ĠSHOUTING": 7789,
      "Ġsausage": 7790,
      "Ġsettled": 7791,
      "Ġphase": 7792,
      "Ġwebsite": 7793,
      "ÃľÃľÃ¦ÃŃÃľÃľÃŃÃľÃľÃĵ": 7794,
      "Ġbrilliant": 7795,
      "ĠCharmese": 7796,
      "22": 7797,
      "Agh": 7798,
      "BR": 7799,
      "Best": 7800,
      "BEEPS": 7801,
      "Baby": 7802,
      "Co": 7803,
      "Donna": 7804,
      "Eat": 7805,
      "Fire": 7806,
      "NG": 7807,
      "Ter": 7808,
      "Tri": 7809,
      "TLING": 7810,
      "Totally": 7811,
      "YELLS": 7812,
      "afe": 7813,
      "born": 7814,
      "cup": 7815,
      "dles": 7816,
      "fish": 7817,
      "gen": 7818,
      "ghed": 7819,
      "gigg": 7820,
      "hor": 7821,
      "iot": 7822,
      "ikes": 7823,
      "maybe": 7824,
      "yard": 7825,
      "Ġtent": 7826,
      "Ġtuck": 7827,
      "Ġtarget": 7828,
      "ouder": 7829,
      "Ġsip": 7830,
      "Ġsung": 7831,
      "half": 7832,
      "onse": 7833,
      "Ġdot": 7834,
      "Ġdim": 7835,
      "Ġdated": 7836,
      "Ġdomin": 7837,
      "Ġfi": 7838,
      "Ġlump": 7839,
      "etic": 7840,
      "Ġpushing": 7841,
      "Ġpowder": 7842,
      "Ġoption": 7843,
      "Ġthrown": 7844,
      "esy": 7845,
      "esse": 7846,
      "Ġitem": 7847,
      "Ġhunt": 7848,
      "Ġinapp": 7849,
      "Ġbears": 7850,
      "Ġbeyond": 7851,
      "idew": 7852,
      "ĠWoo": 7853,
      "ĠWalk": 7854,
      "ĠWHOO": 7855,
      "Ġeah": 7856,
      "aled": 7857,
      "ĠTodd": 7858,
      "ado": 7859,
      "Ġjer": 7860,
      "Ġjazz": 7861,
      "Ġreference": 7862,
      "Ġreasons": 7863,
      "Ġlim": 7864,
      "ĠBee": 7865,
      "ĠBush": 7866,
      "ĠCy": 7867,
      "ĠCross": 7868,
      "ĠMed": 7869,
      "ĠMoo": 7870,
      "ĠMove": 7871,
      "ĠGI": 7872,
      "ĠGil": 7873,
      "ĠPositively": 7874,
      "Ġcans": 7875,
      "Ġjustice": 7876,
      "ĠLot": 7877,
      "iel": 7878,
      "Ġnothin": 7879,
      "ceed": 7880,
      "ential": 7881,
      "ctors": 7882,
      "Ġsober": 7883,
      "ĠNorm": 7884,
      "inky": 7885,
      "ĠHy": 7886,
      "ĠHawa": 7887,
      "oph": 7888,
      "elp": 7889,
      "aging": 7890,
      "agger": 7891,
      "ĠFro": 7892,
      "ĠRam": 7893,
      "Ġwhip": 7894,
      "Ġaltern": 7895,
      "Ġdebt": 7896,
      "Ġvillage": 7897,
      "Ġcomin": 7898,
      "Ġspider": 7899,
      "ittens": 7900,
      "emp": 7901,
      "Ġoffensive": 7902,
      "Ġwherever": 7903,
      "Ġrose": 7904,
      "Ġclick": 7905,
      "abella": 7906,
      "ĠKir": 7907,
      "acing": 7908,
      "Ġplayers": 7909,
      "ization": 7910,
      "gets": 7911,
      "Ġcraz": 7912,
      "neath": 7913,
      "Stand": 7914,
      "Ġcheat": 7915,
      "Ġcarnival": 7916,
      "ubby": 7917,
      "Ġleather": 7918,
      "Ġroommate": 7919,
      "Goodbye": 7920,
      "Ġtragedy": 7921,
      "Ġdrill": 7922,
      "ÃľÃĳ": 7923,
      "Ġminds": 7924,
      "Ġgray": 7925,
      "Ġgrateful": 7926,
      "Ġattic": 7927,
      "Ġexclusive": 7928,
      "ĠBefore": 7929,
      "Ġcrank": 7930,
      "Ġhurting": 7931,
      "SIREN": 7932,
      "Ġlegit": 7933,
      "Ġsigns": 7934,
      "Ġpreschool": 7935,
      "Ġhoneymoon": 7936,
      "ramatic": 7937,
      "Ġearn": 7938,
      "doing": 7939,
      "Ġhusbands": 7940,
      "ricane": 7941,
      "Whoo": 7942,
      "While": 7943,
      "Ġmagn": 7944,
      "Ġboxes": 7945,
      "Ġparade": 7946,
      "Ġ1980": 7947,
      "Ġdragged": 7948,
      "screaming": 7949,
      "Ġcatching": 7950,
      "ĠSwift": 7951,
      "Ġ90": 7952,
      "Ġcriminal": 7953,
      "cont": 7954,
      "Ġbuttons": 7955,
      "Ġpooped": 7956,
      "ĠColl": 7957,
      "ĠMcC": 7958,
      "ĠMcDonald": 7959,
      "Ġyelled": 7960,
      "Ġarticle": 7961,
      "ĠÃ£ÃŃÃı": 7962,
      "load": 7963,
      "Ġvest": 7964,
      "Ġdepartment": 7965,
      "Ġsnap": 7966,
      "Ġsnacks": 7967,
      "Ġbreathing": 7968,
      "Ġbleeding": 7969,
      "Exactly": 7970,
      "Ġteachers": 7971,
      "Ġblocking": 7972,
      "Tomorrow": 7973,
      "ĠSimon": 7974,
      "Ġhyp": 7975,
      "COUGH": 7976,
      "Ġopera": 7977,
      "Ġpersonality": 7978,
      "Ġestab": 7979,
      "iversity": 7980,
      "Ġattracted": 7981,
      "ĠPetey": 7982,
      "Ġpsychic": 7983,
      "Ġbells": 7984,
      "Ġpuppies": 7985,
      "icycle": 7986,
      "ĠMagic": 7987,
      "Enough": 7988,
      "Ġobsessed": 7989,
      "Ġhumiliating": 7990,
      "Carol": 7991,
      "cinating": 7992,
      "walker": 7993,
      "Ġsurvive": 7994,
      "oogle": 7995,
      "ĠKorea": 7996,
      "keeper": 7997,
      "Ġwreck": 7998,
      "Ġremembered": 7999,
      "WHISPERING": 8000,
      "Ġwaist": 8001,
      "Ġprotest": 8002,
      "Ġassistant": 8003,
      "Ġdeserves": 8004,
      "Ġparticular": 8005,
      "ĠOlympics": 8006,
      "Ġunex": 8007,
      "ĠOPENS": 8008,
      "ĠStarbucks": 8009,
      "ĠGumbel": 8010,
      "ICKETS": 8011,
      "ĠHawai": 8012,
      "\"'": 8013,
      "200": 8014,
      "AP": 8015,
      "Ang": 8016,
      "Bel": 8017,
      "Def": 8018,
      "DANCE": 8019,
      "Four": 8020,
      "Hot": 8021,
      "HORN": 8022,
      "Imagine": 8023,
      "Mic": 8024,
      "Pen": 8025,
      "Pick": 8026,
      "President": 8027,
      "RUM": 8028,
      "SS": 8029,
      "Sus": 8030,
      "SONG": 8031,
      "VID": 8032,
      "abe": 8033,
      "bar": 8034,
      "bac": 8035,
      "dog": 8036,
      "fun": 8037,
      "pea": 8038,
      "please": 8039,
      "sized": 8040,
      "ura": 8041,
      "van": 8042,
      "xy": 8043,
      "za": 8044,
      "Âģ": 8045,
      "Ġtamp": 8046,
      "oul": 8047,
      "hell": 8048,
      "inas": 8049,
      "innam": 8050,
      "rection": 8051,
      "Ġwings": 8052,
      "happy": 8053,
      "ĠIre": 8054,
      "Ġbingo": 8055,
      "isters": 8056,
      "Ġguts": 8057,
      "Ġdeter": 8058,
      "Ġcurious": 8059,
      "Ġfres": 8060,
      "Ġfund": 8061,
      "Ġfrog": 8062,
      "Ġfashion": 8063,
      "ettle": 8064,
      "Ġnud": 8065,
      "Ġpir": 8066,
      "Ġpier": 8067,
      "Ġpapers": 8068,
      "stop": 8069,
      "oty": 8070,
      "rike": 8071,
      "Ġheck": 8072,
      "Ġitch": 8073,
      "Ġitems": 8074,
      "Ġhamb": 8075,
      "uther": 8076,
      "sequ": 8077,
      "ĠWin": 8078,
      "Ġdope": 8079,
      "Ġmystery": 8080,
      "ĠTor": 8081,
      "ĠTown": 8082,
      "ĠSi": 8083,
      "ĠSal": 8084,
      "ĠSeth": 8085,
      "amin": 8086,
      "Ġreun": 8087,
      "ĠBry": 8088,
      "ĠBitch": 8089,
      "ĠBeth": 8090,
      "ĠBarrington": 8091,
      "Ġstall": 8092,
      "Ġstone": 8093,
      "Ġstarring": 8094,
      "ĠConsuela": 8095,
      "ĠMount": 8096,
      "ĠGary": 8097,
      "ĠGirl": 8098,
      "ĠPam": 8099,
      "ĠPac": 8100,
      "ĠPull": 8101,
      "ĠProvidence": 8102,
      "ĠAfter": 8103,
      "holic": 8104,
      "Ġsection": 8105,
      "iece": 8106,
      "ĠDJ": 8107,
      "ĠDennis": 8108,
      "ryl": 8109,
      "iffe": 8110,
      "iforn": 8111,
      "Ġsoccer": 8112,
      "ural": 8113,
      "Ġabstin": 8114,
      "ĠHim": 8115,
      "ĠHour": 8116,
      "ĠHog": 8117,
      "ĠYouTube": 8118,
      "tering": 8119,
      "again": 8120,
      "agree": 8121,
      "Ġsue": 8122,
      "Ġsumm": 8123,
      "risc": 8124,
      "ĠRos": 8125,
      "ĠRose": 8126,
      "ĠStick": 8127,
      "osc": 8128,
      "Ġdeck": 8129,
      "venient": 8130,
      "Ġcomic": 8131,
      "ĠEp": 8132,
      "ĠExcellent": 8133,
      "oyd": 8134,
      "quet": 8135,
      "Ġdowntown": 8136,
      "Ġpeed": 8137,
      "Ġpepper": 8138,
      "Ġaggress": 8139,
      "Ġbye": 8140,
      "Ġconcl": 8141,
      "Ġclip": 8142,
      "Ġshoulders": 8143,
      "Ġhappier": 8144,
      "assic": 8145,
      "ounding": 8146,
      "Ġ''": 8147,
      "Ġblows": 8148,
      "ĠKick": 8149,
      "Ġworker": 8150,
      "ĠJoey": 8151,
      "thew": 8152,
      "their": 8153,
      "Ġunderneath": 8154,
      "Ġunw": 8155,
      "Ġunit": 8156,
      "Ġmini": 8157,
      "Ġremark": 8158,
      "Ġdishes": 8159,
      "Ġslice": 8160,
      "ÃĳÃŃ": 8161,
      "Ġ21": 8162,
      "Ġhottest": 8163,
      "Ġserving": 8164,
      "ORGAN": 8165,
      "Ġchecks": 8166,
      "Ġvalue": 8167,
      "Ġrecall": 8168,
      "ĠBeat": 8169,
      "ĠCanadian": 8170,
      "Ġpays": 8171,
      "ĠClinton": 8172,
      "ĠÃ£Ã¦": 8173,
      "Ġpencil": 8174,
      "ĠForrest": 8175,
      "ĠThink": 8176,
      "clear": 8177,
      "Ġinvitation": 8178,
      "ĠSeamus": 8179,
      "ĠAlso": 8180,
      "Ġmagical": 8181,
      "Ġforeign": 8182,
      "clock": 8183,
      "Ġconfess": 8184,
      "Ġsqueeze": 8185,
      "Always": 8186,
      "Ġbottles": 8187,
      "whip": 8188,
      "Ġzone": 8189,
      "Ġcripp": 8190,
      "Ġpooping": 8191,
      "Thought": 8192,
      "ĠUnless": 8193,
      "Ġrepresent": 8194,
      "ĠCommand": 8195,
      "Ġgrandma": 8196,
      "Ġsucked": 8197,
      "Ġmailbox": 8198,
      "Ġchairs": 8199,
      "Ġexpert": 8200,
      "Ġdepressed": 8201,
      "ĠMaine": 8202,
      "Ġepisodes": 8203,
      "Ġmiserable": 8204,
      "CTR": 8205,
      "ÃĴÃŃ": 8206,
      "CRICKETS": 8207,
      "ĠÃ¥ÃĵÃĬ": 8208,
      "ĠPatriot": 8209,
      "ĠIndia": 8210,
      "ÃŀÃĺ": 8211,
      "ĠGolden": 8212,
      "Ġtournament": 8213,
      "Ġmasc": 8214,
      "Ġindepend": 8215,
      "Ġstatement": 8216,
      "Ġskinny": 8217,
      "Ġterrif": 8218,
      "ĠGuess": 8219,
      "Ġthousands": 8220,
      "Ġofficer": 8221,
      "Ġurine": 8222,
      "ĠHerbert": 8223,
      "Ġreceip": 8224,
      "Ġtaxes": 8225,
      "Ġboner": 8226,
      "ĠLeave": 8227,
      "Ġtechnically": 8228,
      "ĠBeach": 8229,
      "Ġentertainment": 8230,
      "Ġbalcony": 8231,
      "ĠJanet": 8232,
      "Ġtunnel": 8233,
      "ĠWilson": 8234,
      "Ġcitizens": 8235,
      "Ġkidnapped": 8236,
      "ĠAfrica": 8237,
      "Ġlaser": 8238,
      "Ġwhistle": 8239,
      "Ġyoga": 8240,
      "ĠThomas": 8241,
      "Ġbachelor": 8242,
      "ĠVIBRATES": 8243,
      "ielsen": 8244,
      "Ġintellig": 8245,
      "Ġdocument": 8246,
      "AUDIENCE": 8247,
      "Ġscumbag": 8248,
      "ĠLincoln": 8249,
      "CAMERA": 8250,
      "Ġachieve": 8251,
      "ĠÃİÃŃÃ¡ÃŃ": 8252,
      "Ġunexpected": 8253,
      "innamon": 8254,
      "**": 8255,
      "Aid": 8256,
      "BI": 8257,
      "Bra": 8258,
      "Bru": 8259,
      "BEEPING": 8260,
      "BIRD": 8261,
      "CLIC": 8262,
      "DING": 8263,
      "Gr": 8264,
      "Gold": 8265,
      "NS": 8266,
      "NARRATOR": 8267,
      "OUS": 8268,
      "PLE": 8269,
      "RY": 8270,
      "Run": 8271,
      "Real": 8272,
      "Ser": 8273,
      "Tra": 8274,
      "boo": 8275,
      "bal": 8276,
      "cat": 8277,
      "dis": 8278,
      "dow": 8279,
      "fly": 8280,
      "jack": 8281,
      "long": 8282,
      "lets": 8283,
      "rot": 8284,
      "rum": 8285,
      "su": 8286,
      "six": 8287,
      "wah": 8288,
      "xting": 8289,
      "ya": 8290,
      "Ġ@": 8291,
      "Ġtears": 8292,
      "Ġwig": 8293,
      "Ġwound": 8294,
      "Ġmoust": 8295,
      "ĠIce": 8296,
      "Ġbin": 8297,
      "Ġbubble": 8298,
      "Ġgut": 8299,
      "Ġdarn": 8300,
      "Ġcust": 8301,
      "Ġcro": 8302,
      "Ġcents": 8303,
      "Ġfal": 8304,
      "Ġlt": 8305,
      "Ġleng": 8306,
      "Ġnanny": 8307,
      "Ġnasty": 8308,
      "Ġpond": 8309,
      "Ġpork": 8310,
      "stal": 8311,
      "enry": 8312,
      "enway": 8313,
      "rid": 8314,
      "rig": 8315,
      "rim": 8316,
      "athan": 8317,
      "Ġheter": 8318,
      "Ġoffered": 8319,
      "ask": 8320,
      "ases": 8321,
      "alo": 8322,
      "ĠTimes": 8323,
      "ĠSy": 8324,
      "ĠSub": 8325,
      "icon": 8326,
      "ĠBrew": 8327,
      "ĠCD": 8328,
      "ĠCou": 8329,
      "ĠCle": 8330,
      "ĠCongress": 8331,
      "ĠMau": 8332,
      "ĠMoney": 8333,
      "east": 8334,
      "ĠGun": 8335,
      "ĠGib": 8336,
      "Ġkne": 8337,
      "ĠPel": 8338,
      "ĠPitt": 8339,
      "ĠPanc": 8340,
      "ĠPunch": 8341,
      "ĠAc": 8342,
      "allas": 8343,
      "alley": 8344,
      "Ġsevere": 8345,
      "Ġants": 8346,
      "Ġancest": 8347,
      "Ġguarant": 8348,
      "ĠDIST": 8349,
      "raight": 8350,
      "Ġoutrage": 8351,
      "ĠNumber": 8352,
      "ĠNielsen": 8353,
      "Ġabo": 8354,
      "Ġabuse": 8355,
      "ĠHup": 8356,
      "ĠHORN": 8357,
      "ausing": 8358,
      "Ġwanting": 8359,
      "elope": 8360,
      "ilities": 8361,
      "igr": 8362,
      "romise": 8363,
      "ĠFull": 8364,
      "ĠFact": 8365,
      "ĠFresh": 8366,
      "ĠRing": 8367,
      "ĠRud": 8368,
      "ĠRuth": 8369,
      "ulf": 8370,
      "osis": 8371,
      "Ġvase": 8372,
      "ola": 8373,
      "Ġspark": 8374,
      "earl": 8375,
      "eman": 8376,
      "ĠEver": 8377,
      "ferences": 8378,
      "ĠWeb": 8379,
      "Ġexit": 8380,
      "Ġsheets": 8381,
      "Ġoverre": 8382,
      "Ġconvin": 8383,
      "Ġconference": 8384,
      "ĠYo": 8385,
      "assy": 8386,
      "ĠUs": 8387,
      "ĠUber": 8388,
      "ĠUnder": 8389,
      "acos": 8390,
      "Ġscratcher": 8391,
      "Ġquote": 8392,
      "Ġquality": 8393,
      "iped": 8394,
      "ipoopi": 8395,
      "Ġfriendly": 8396,
      "plant": 8397,
      "weight": 8398,
      "Ġtrade": 8399,
      "Ġfatty": 8400,
      "never": 8401,
      "acht": 8402,
      "Ġleague": 8403,
      "Ġbrut": 8404,
      "Ġreality": 8405,
      "ĠVir": 8406,
      "ÃĩÃĪ": 8407,
      "Ġchances": 8408,
      "Ġflap": 8409,
      "peror": 8410,
      "Ġbits": 8411,
      "Ġarrang": 8412,
      "ailing": 8413,
      "Ġappropriate": 8414,
      "ATH": 8415,
      "ATION": 8416,
      "Ġshove": 8417,
      "Ġpoker": 8418,
      "ÃĳÃĩÃĳ": 8419,
      "Ġassault": 8420,
      "ronk": 8421,
      "Ġdads": 8422,
      "ĠBran": 8423,
      "Ġtrigger": 8424,
      "otton": 8425,
      "Ġexcellent": 8426,
      "ivid": 8427,
      "Ġchores": 8428,
      "Ġaccess": 8429,
      "kespea": 8430,
      "Ġprecious": 8431,
      "umbling": 8432,
      "hart": 8433,
      "ĠClaus": 8434,
      "Ġpassen": 8435,
      "Ġsigning": 8436,
      "ception": 8437,
      "ĠNewport": 8438,
      "Ġpenny": 8439,
      "Ġcommand": 8440,
      "ĠScar": 8441,
      "Ġlessons": 8442,
      "Ġintense": 8443,
      "Ġregard": 8444,
      "ĠHaving": 8445,
      "ĠRober": 8446,
      "Ġmidnight": 8447,
      "ĠDrunk": 8448,
      "Ġelection": 8449,
      "minator": 8450,
      "Ġworthless": 8451,
      "ĠAnybody": 8452,
      "Ġresponse": 8453,
      "Ġtrusted": 8454,
      "Ġcorrupt": 8455,
      "ĠTrust": 8456,
      "ĠÃ¤Ã¥": 8457,
      "Ġexpected": 8458,
      "WHIRRING": 8459,
      "ĠÃ¥Ãĩ": 8460,
      "Ġbananas": 8461,
      "Ġgrounded": 8462,
      "Ġsolution": 8463,
      "Ġaccepted": 8464,
      "Ġ70": 8465,
      "Screw": 8466,
      "Ġbattery": 8467,
      "Ġpigs": 8468,
      "ĠDanny": 8469,
      "Ġprogress": 8470,
      "Ġdrawing": 8471,
      "Ġbanging": 8472,
      "Ġdivorced": 8473,
      "Ġpsycho": 8474,
      "Ġsensitive": 8475,
      "Ġpanic": 8476,
      "ĠSQUEAL": 8477,
      "Ġlifetime": 8478,
      "lectric": 8479,
      "strong": 8480,
      "Ġhumiliated": 8481,
      "Ġholidays": 8482,
      "uttering": 8483,
      "Ġinjured": 8484,
      "ĠBroad": 8485,
      "Ġcondoms": 8486,
      "Ġfortune": 8487,
      "ĠPerhaps": 8488,
      "Ġseparate": 8489,
      "Ġmasturbate": 8490,
      "Ġfrozen": 8491,
      "ĠJudy": 8492,
      "Ġcitizen": 8493,
      "Ġappearance": 8494,
      "Ġapplause": 8495,
      "THEME": 8496,
      "Ġreplaced": 8497,
      "ĠMiddle": 8498,
      "ĠCosby": 8499,
      "ĠPadma": 8500,
      "lasses": 8501,
      "Ġlyrics": 8502,
      "GROWLING": 8503,
      "Jeff": 8504,
      "Ġlemonade": 8505,
      "Ġoptions": 8506,
      "ĠHeaven": 8507,
      "Ġprescription": 8508,
      "Ġeducation": 8509,
      "English": 8510,
      "Ġescaped": 8511,
      "Ġcrisis": 8512,
      "Ġargument": 8513,
      "Ġopinion": 8514,
      "Ġcameras": 8515,
      "ifornia": 8516,
      "Ġheterosexual": 8517,
      "kespeare": 8518,
      "''": 8519,
      "Af": 8520,
      "About": 8521,
      "Chan": 8522,
      "Down": 8523,
      "EV": 8524,
      "GE": 8525,
      "Honestly": 8526,
      "Ind": 8527,
      "Jew": 8528,
      "LER": 8529,
      "LINE": 8530,
      "Mart": 8531,
      "Mine": 8532,
      "Move": 8533,
      "OG": 8534,
      "PO": 8535,
      "Sad": 8536,
      "SUS": 8537,
      "Sex": 8538,
      "Use": 8539,
      "bes": 8540,
      "bur": 8541,
      "bush": 8542,
      "core": 8543,
      "crowd": 8544,
      "gent": 8545,
      "girl": 8546,
      "lom": 8547,
      "lace": 8548,
      "mir": 8549,
      "moud": 8550,
      "pat": 8551,
      "parent": 8552,
      "rite": 8553,
      "rats": 8554,
      "take": 8555,
      "treat": 8556,
      "Ġted": 8557,
      "Ġtab": 8558,
      "Ġtons": 8559,
      "instein": 8560,
      "rees": 8561,
      "really": 8562,
      "reaking": 8563,
      "Ġsush": 8564,
      "only": 8565,
      "Ġmi": 8566,
      "Ġmut": 8567,
      "Ġmeter": 8568,
      "ĠIisten": 8569,
      "Ġbuck": 8570,
      "iser": 8571,
      "itled": 8572,
      "anch": 8573,
      "Ġdin": 8574,
      "Ġder": 8575,
      "Ġdum": 8576,
      "Ġcure": 8577,
      "Ġcass": 8578,
      "Ġcausing": 8579,
      "Ġfas": 8580,
      "Ġnav": 8581,
      "Ġpant": 8582,
      "Ġpunk": 8583,
      "Ġpuzz": 8584,
      "stock": 8585,
      "enie": 8586,
      "atra": 8587,
      "Ġbecomes": 8588,
      "ooper": 8589,
      "asper": 8590,
      "iders": 8591,
      "ĠWork": 8592,
      "ĠWoman": 8593,
      "ĠTry": 8594,
      "ĠSING": 8595,
      "ĠSound": 8596,
      "Ġjeez": 8597,
      "Ġrevenge": 8598,
      "ĠBell": 8599,
      "ĠBLA": 8600,
      "ĠBank": 8601,
      "ĠBreak": 8602,
      "Ġstroll": 8603,
      "ĠMuse": 8604,
      "ĠMountain": 8605,
      "ĠPig": 8606,
      "ĠPee": 8607,
      "ĠPops": 8608,
      "Ġcandid": 8609,
      "Ġgoal": 8610,
      "rover": 8611,
      "road": 8612,
      "ĠDun": 8613,
      "ĠDear": 8614,
      "ĠDarth": 8615,
      "raction": 8616,
      "ĠHas": 8617,
      "ĠHBO": 8618,
      "ĠHenry": 8619,
      "unter": 8620,
      "Ġshift": 8621,
      "Ġnoises": 8622,
      "aggy": 8623,
      "Ġsubs": 8624,
      "ĠFenway": 8625,
      "ĠRais": 8626,
      "Ġwhiz": 8627,
      "Weird": 8628,
      "Ġplain": 8629,
      "Ġalt": 8630,
      "uls": 8631,
      "osing": 8632,
      "osit": 8633,
      "Ġdemon": 8634,
      "ained": 8635,
      "Ġspill": 8636,
      "Ġrally": 8637,
      "Ġrude": 8638,
      "beep": 8639,
      "ĠEll": 8640,
      "fest": 8641,
      "ĠWeed": 8642,
      "Ġoffense": 8643,
      "Ġshelf": 8644,
      "Ġprostate": 8645,
      "ousy": 8646,
      "Ġoverd": 8647,
      "akers": 8648,
      "Ġcondu": 8649,
      "Ġblown": 8650,
      "Ġblues": 8651,
      "onda": 8652,
      "ĠKn": 8653,
      "ĠKind": 8654,
      "ĠKris": 8655,
      "ĠKelly": 8656,
      "Ġtwins": 8657,
      "Ġscreams": 8658,
      "Ġcoast": 8659,
      "Ġfunn": 8660,
      "Ġchips": 8661,
      "ĠAllen": 8662,
      "Ġhelpful": 8663,
      "Ġactors": 8664,
      "Ġguessing": 8665,
      "ngth": 8666,
      "ahmoud": 8667,
      "ĠVen": 8668,
      "Ġunp": 8669,
      "Ġremoved": 8670,
      "ISH": 8671,
      "Ġlean": 8672,
      "Ġchapter": 8673,
      "Ġflav": 8674,
      "Ġmarks": 8675,
      "Ġtexting": 8676,
      "Ġshave": 8677,
      "Ġsharing": 8678,
      "ONES": 8679,
      "Ġawfully": 8680,
      "Ġtraum": 8681,
      "Ġdiet": 8682,
      "Ġdiapers": 8683,
      "ronaut": 8684,
      "Ġplanes": 8685,
      "Ġvalu": 8686,
      "Ġstays": 8687,
      "ĠTommy": 8688,
      "Ġspect": 8689,
      "Ġchoke": 8690,
      "Ġdecisions": 8691,
      "Ġsurround": 8692,
      "Ġproof": 8693,
      "Ġclassy": 8694,
      "ĠSpring": 8695,
      "Ġfacts": 8696,
      "irthday": 8697,
      "Getting": 8698,
      "Going": 8699,
      "dollar": 8700,
      "Ġpride": 8701,
      "Ġmovement": 8702,
      "Ġcleaned": 8703,
      "Ġlightning": 8704,
      "Ġcounting": 8705,
      "Ġdriveway": 8706,
      "Haven": 8707,
      "Ġcharity": 8708,
      "evi": 8709,
      "Ġbirthdays": 8710,
      "ĠRoom": 8711,
      "Ġannual": 8712,
      "Ġwheels": 8713,
      "Ġsticking": 8714,
      "Ġfalls": 8715,
      "Ġaddition": 8716,
      "Ġpornography": 8717,
      "Ġordering": 8718,
      "ĠCoke": 8719,
      "ĠJeremy": 8720,
      "Ġsyrup": 8721,
      "Ġtreating": 8722,
      "Ġangle": 8723,
      "Ġtoilets": 8724,
      "Ġdirections": 8725,
      "ĠÃ£ÃŃÃİÃ¦": 8726,
      "ĠTrans": 8727,
      "Ġreports": 8728,
      "Ġowl": 8729,
      "Ġrefrigerator": 8730,
      "Ġpeeing": 8731,
      "ĠÃ¤ÃŃ": 8732,
      "ĠShakespeare": 8733,
      "ĠReady": 8734,
      "Ġmisunder": 8735,
      "CTOR": 8736,
      "URG": 8737,
      "Ġfright": 8738,
      "Ġmarrying": 8739,
      "Ġrestaurants": 8740,
      "Ġsolid": 8741,
      "Ġpoorly": 8742,
      "Ġcups": 8743,
      "Without": 8744,
      "Ġcrackers": 8745,
      "Ġspiritual": 8746,
      "ĠWHIRRING": 8747,
      "Ġeasily": 8748,
      "ĠHarvey": 8749,
      "ikTo": 8750,
      "Ġlaughed": 8751,
      "Ġjournal": 8752,
      "ĠMusic": 8753,
      "ĠMuslim": 8754,
      "Ġconstruction": 8755,
      "ĠCatholic": 8756,
      "Ġmixed": 8757,
      "Ġtwisted": 8758,
      "Ġspecific": 8759,
      "ĠCutaway": 8760,
      "Ġidentity": 8761,
      "EOPLE": 8762,
      "ĠMatthew": 8763,
      "ĠObama": 8764,
      "respons": 8765,
      "Ġstreets": 8766,
      "ELECTR": 8767,
      "repare": 8768,
      "Ġweapon": 8769,
      "Ġroute": 8770,
      "ĠRoger": 8771,
      "MALE": 8772,
      "Ġfreezing": 8773,
      "ĠVictor": 8774,
      "ĠFriends": 8775,
      "ĠSkywalker": 8776,
      "PLOSION": 8777,
      "Ġuniform": 8778,
      "Ġjewel": 8779,
      "ĠLewis": 8780,
      "PUTER": 8781,
      "ĠWatson": 8782,
      "lderly": 8783,
      "ĠCLOSES": 8784,
      "ĠReagan": 8785,
      "Ġoblig": 8786,
      "GUNSHOT": 8787,
      "onymous": 8788,
      "Ġfreedom": 8789,
      "Seriously": 8790,
      "Ġmoustache": 8791,
      "Ġaboard": 8792,
      "'!": 8793,
      "24": 8794,
      "500": 8795,
      "AH": 8796,
      "Bird": 8797,
      "Clear": 8798,
      "Drop": 8799,
      "Either": 8800,
      "Excellent": 8801,
      "Fat": 8802,
      "Grab": 8803,
      "MUR": 8804,
      "Off": 8805,
      "Pull": 8806,
      "PEOPLE": 8807,
      "TY": 8808,
      "Wan": 8809,
      "[\"": 8810,
      "bom": 8811,
      "bble": 8812,
      "cers": 8813,
      "course": 8814,
      "fight": 8815,
      "fits": 8816,
      "gic": 8817,
      "horn": 8818,
      "ials": 8819,
      "je": 8820,
      "ji": 8821,
      "lete": 8822,
      "mill": 8823,
      "phy": 8824,
      "pass": 8825,
      "squ": 8826,
      "those": 8827,
      "talking": 8828,
      "uer": 8829,
      "vah": 8830,
      "vious": 8831,
      "wait": 8832,
      "zer": 8833,
      "Ġ#": 8834,
      "Ġta": 8835,
      "Ġtacos": 8836,
      "Ġwrist": 8837,
      "Ġsan": 8838,
      "Ġsidew": 8839,
      "Ġyum": 8840,
      "ĠID": 8841,
      "ĠIong": 8842,
      "Ġbun": 8843,
      "Ġbreeze": 8844,
      "anking": 8845,
      "anwhile": 8846,
      "Ġdome": 8847,
      "Ġcy": 8848,
      "Ġcert": 8849,
      "Ġfig": 8850,
      "Ġfab": 8851,
      "Ġlois": 8852,
      "Ġlung": 8853,
      "Ġnarr": 8854,
      "stance": 8855,
      "otal": 8856,
      "argh": 8857,
      "around": 8858,
      "Ġhill": 8859,
      "Ġhmm": 8860,
      "Ġhipp": 8861,
      "Ġinit": 8862,
      "Ġbee": 8863,
      "asp": 8864,
      "Ġweigh": 8865,
      "Ġkaraoke": 8866,
      "Ġdolp": 8867,
      "althy": 8868,
      "ĠTrek": 8869,
      "ĠTotally": 8870,
      "ĠSolo": 8871,
      "Ġjunior": 8872,
      "ican": 8873,
      "amm": 8874,
      "Ġstare": 8875,
      "Ġstreaming": 8876,
      "iming": 8877,
      "imit": 8878,
      "ĠMupp": 8879,
      "ĠMahmoud": 8880,
      "ĠGU": 8881,
      "ĠPerry": 8882,
      "ĠAff": 8883,
      "children": 8884,
      "Ġknowledge": 8885,
      "ĠLI": 8886,
      "ĠLake": 8887,
      "ĠDoo": 8888,
      "ĠDiet": 8889,
      "ĠDallas": 8890,
      "oody": 8891,
      "Ġsock": 8892,
      "ĠHur": 8893,
      "Ġshine": 8894,
      "Ġshiny": 8895,
      "ĠJune": 8896,
      "ĠPeterson": 8897,
      "ilton": 8898,
      "ively": 8899,
      "ĠOpen": 8900,
      "Ġuses": 8901,
      "ĠFight": 8902,
      "ĠFort": 8903,
      "ĠFAM": 8904,
      "ĠFinally": 8905,
      "ĠFruit": 8906,
      "ĠFonz": 8907,
      "ĠRad": 8908,
      "umble": 8909,
      "Ġwhom": 8910,
      "Ġplot": 8911,
      "Ġbackground": 8912,
      "Ġbackyard": 8913,
      "Ġvoted": 8914,
      "Ġmanaged": 8915,
      "onge": 8916,
      "Ġrot": 8917,
      "Ġrug": 8918,
      "ĠEnd": 8919,
      "ĠEight": 8920,
      "ĠEdd": 8921,
      "Ġshelter": 8922,
      "Ġlets": 8923,
      "Ġorders": 8924,
      "ĠHeather": 8925,
      "berries": 8926,
      "Ġconsequ": 8927,
      "ĠKar": 8928,
      "Ġchin": 8929,
      "Ġmug": 8930,
      "ANN": 8931,
      "Ġdrum": 8932,
      "Ġcheek": 8933,
      "uba": 8934,
      "Ġlifestyle": 8935,
      "Ġunderpants": 8936,
      "ÃĩÃ": 8937,
      "ÃĩÃŀ": 8938,
      "Ġflowers": 8939,
      "Ġowned": 8940,
      "Whoever": 8941,
      "ugar": 8942,
      "Ġperman": 8943,
      "Ġasks": 8944,
      "Ġdisagree": 8945,
      "Ġapply": 8946,
      "Ġheadache": 8947,
      "REE": 8948,
      "REATH": 8949,
      "Ġdiv": 8950,
      "ankly": 8951,
      "psons": 8952,
      "Ġbooked": 8953,
      "Ġrescue": 8954,
      "Ġretired": 8955,
      "ORD": 8956,
      "ĠBrothers": 8957,
      "ractive": 8958,
      "Ġtrial": 8959,
      "lessly": 8960,
      "ĠCHUCK": 8961,
      "Ġcrush": 8962,
      "ĠÃĪÃı": 8963,
      "Ġprincess": 8964,
      "Ġcomplicated": 8965,
      "Ġentered": 8966,
      "anything": 8967,
      "ĠGlen": 8968,
      "Ġ35": 8969,
      "EPHER": 8970,
      "attractive": 8971,
      "Ġcerem": 8972,
      "Ġhearts": 8973,
      "ĠTooth": 8974,
      "Ġmedal": 8975,
      "Ġconfident": 8976,
      "OMACH": 8977,
      "Ġshuttle": 8978,
      "Ġpasta": 8979,
      "Ġexplo": 8980,
      "Ġsalmon": 8981,
      "ĠAnn": 8982,
      "Ġmillenn": 8983,
      "Ġbegan": 8984,
      "Ġcripple": 8985,
      "Ġporno": 8986,
      "ĠÃıÃŃ": 8987,
      "Ġdistance": 8988,
      "ĠCoach": 8989,
      "Ġdropping": 8990,
      "Ġincre": 8991,
      "STUD": 8992,
      "Ġmailman": 8993,
      "Ġturd": 8994,
      "ĠPrince": 8995,
      "Ġfanny": 8996,
      "Ġtexts": 8997,
      "Ġdeeply": 8998,
      "Ġpresentation": 8999,
      "Ġgasp": 9000,
      "ĠLAUGHTER": 9001,
      "Second": 9002,
      "Ġstinking": 9003,
      "ĠGotcha": 9004,
      "ĠEmperor": 9005,
      "Ġhooker": 9006,
      "Ġhooked": 9007,
      "Ġindivid": 9008,
      "ĠCHIMING": 9009,
      "Ġcapable": 9010,
      "ĠÃĪÃĩÃŃÃı": 9011,
      "Ġcigar": 9012,
      "mbol": 9013,
      "SNIFFING": 9014,
      "Ġproperly": 9015,
      "Ġhallway": 9016,
      "ILD": 9017,
      "aagh": 9018,
      "ÃĮÃĩÃ£": 9019,
      "ĠSteven": 9020,
      "SEFUL": 9021,
      "ĠWayne": 9022,
      "ĠEnough": 9023,
      "Ġsneakers": 9024,
      "positively": 9025,
      "Ġwasting": 9026,
      "ĠPolice": 9027,
      "PENSEFUL": 9028,
      "ĠSnoopy": 9029,
      "Ġnerd": 9030,
      "ĠSeriously": 9031,
      "Ġaddicted": 9032,
      "ĠNatal": 9033,
      "Ġliberal": 9034,
      "ĠDenise": 9035,
      "Ġadopt": 9036,
      "Ġcircum": 9037,
      "Ġaccomplish": 9038,
      "Ġambul": 9039,
      "Ġpronoun": 9040,
      "Ġveteran": 9041,
      "Ġinflu": 9042,
      "Ġindeed": 9043,
      "ĠAustral": 9044,
      "Ġallergic": 9045,
      "Ġgloves": 9046,
      "ĠBUZZING": 9047,
      "known": 9048,
      "Ġingred": 9049,
      "Ġcorporate": 9050,
      "eptember": 9051,
      "Ġbehavior": 9052,
      "Ġrehears": 9053,
      "SLUR": 9054,
      "Ġastronaut": 9055,
      "Ġrecipe": 9056,
      "ĠElizabeth": 9057,
      "Ġmortgage": 9058,
      "ĠMoore": 9059,
      "ĠIreland": 9060,
      "ifferent": 9061,
      "Bruce": 9062,
      "ĠGibson": 9063,
      "ĠRaisin": 9064,
      "ĠEddie": 9065,
      "EPHERD": 9066,
      "Ġceremony": 9067,
      "45": 9068,
      "AK": 9069,
      "Ain": 9070,
      "Aha": 9071,
      "AZZ": 9072,
      "BY": 9073,
      "BEEP": 9074,
      "Des": 9075,
      "EG": 9076,
      "FTLY": 9077,
      "Gee": 9078,
      "Hit": 9079,
      "Had": 9080,
      "Home": 9081,
      "IGHS": 9082,
      "Luke": 9083,
      "MING": 9084,
      "MORING": 9085,
      "Old": 9086,
      "Pre": 9087,
      "Rep": 9088,
      "SEA": 9089,
      "Wil": 9090,
      "Work": 9091,
      "Wanna": 9092,
      "burn": 9093,
      "buster": 9094,
      "food": 9095,
      "ga": 9096,
      "gle": 9097,
      "grow": 9098,
      "gans": 9099,
      "hib": 9100,
      "iation": 9101,
      "job": 9102,
      "lar": 9103,
      "lause": 9104,
      "make": 9105,
      "making": 9106,
      "mitted": 9107,
      "nine": 9108,
      "spe": 9109,
      "too": 9110,
      "wall": 9111,
      "yah": 9112,
      "ÃĲ": 9113,
      "Ġ!": 9114,
      "Ġtang": 9115,
      "reens": 9116,
      "Ġwitch": 9117,
      "hake": 9118,
      "Ġye": 9119,
      "Ġmois": 9120,
      "Ġmile": 9121,
      "Ġmild": 9122,
      "Ġyouth": 9123,
      "Ġgate": 9124,
      "Ġgrap": 9125,
      "Ġgamb": 9126,
      "itals": 9127,
      "anes": 9128,
      "Ġdu": 9129,
      "Ġdun": 9130,
      "Ġdates": 9131,
      "Ġdread": 9132,
      "Ġfet": 9133,
      "Ġfifth": 9134,
      "Ġlit": 9135,
      "Ġlink": 9136,
      "Ġlamp": 9137,
      "Ġpatch": 9138,
      "Ġpaj": 9139,
      "Ġthighs": 9140,
      "ril": 9141,
      "rict": 9142,
      "rims": 9143,
      "atum": 9144,
      "Ġheav": 9145,
      "Ġinches": 9146,
      "kee": 9147,
      "ashing": 9148,
      "sec": 9149,
      "ĠWomen": 9150,
      "cky": 9151,
      "Ġew": 9152,
      "Ġmyster": 9153,
      "outhern": 9154,
      "ĠThan": 9155,
      "ĠTinder": 9156,
      "ĠSun": 9157,
      "ĠSull": 9158,
      "ĠSister": 9159,
      "ĠSilly": 9160,
      "add": 9161,
      "adel": 9162,
      "Ġjet": 9163,
      "amar": 9164,
      "amps": 9165,
      "Ġrev": 9166,
      "Ġreact": 9167,
      "Ġliver": 9168,
      "ĠBox": 9169,
      "ĠBald": 9170,
      "ĠBARKING": 9171,
      "Ġstaff": 9172,
      "ĠCold": 9173,
      "ĠCock": 9174,
      "ĠCBS": 9175,
      "imal": 9176,
      "ĠMet": 9177,
      "ĠMal": 9178,
      "ĠMind": 9179,
      "ĠMerry": 9180,
      "ĠGra": 9181,
      "ĠGree": 9182,
      "ĠGosh": 9183,
      "ĠPretty": 9184,
      "ĠAA": 9185,
      "ĠAct": 9186,
      "ĠArab": 9187,
      "iration": 9188,
      "irring": 9189,
      "irlfriend": 9190,
      "Ġcandle": 9191,
      "ĠLes": 9192,
      "ĠLas": 9193,
      "ĠLie": 9194,
      "ĠDuff": 9195,
      "Ġsore": 9196,
      "ĠNor": 9197,
      "urf": 9198,
      "ppin": 9199,
      "inkle": 9200,
      "ĠHist": 9201,
      "Ġupdate": 9202,
      "ĠJu": 9203,
      "ĠJuice": 9204,
      "ĠJaws": 9205,
      "agn": 9206,
      "ilet": 9207,
      "usi": 9208,
      "ushes": 9209,
      "indeer": 9210,
      "igaret": 9211,
      "ĠFed": 9212,
      "ĠFlo": 9213,
      "uman": 9214,
      "ĠStone": 9215,
      "ĠStuff": 9216,
      "Ġloaded": 9217,
      "Ġplow": 9218,
      "oses": 9219,
      "Ġvap": 9220,
      "Ġvodka": 9221,
      "Ġmanage": 9222,
      "olk": 9223,
      "Ġsacri": 9224,
      "Ġroo": 9225,
      "ĠEr": 9226,
      "ĠEat": 9227,
      "ĠEllen": 9228,
      "feld": 9229,
      "Ġoffended": 9230,
      "Ġsheet": 9231,
      "Ġsheep": 9232,
      "respect": 9233,
      "Ġrod": 9234,
      "Ġfeces": 9235,
      "thm": 9236,
      "Ġbetray": 9237,
      "Ġjohn": 9238,
      "retchen": 9239,
      "Ġchir": 9240,
      "Ġchuck": 9241,
      "Ġwrites": 9242,
      "wered": 9243,
      "Ġsmiling": 9244,
      "Stew": 9245,
      "iley": 9246,
      "ression": 9247,
      "TERING": 9248,
      "Ġhousehold": 9249,
      "ĠVi": 9250,
      "UNE": 9251,
      "Ġwaited": 9252,
      "Ġraped": 9253,
      "cca": 9254,
      "ccoli": 9255,
      "Ã¤ÃŃÃ¤": 9256,
      "ords": 9257,
      "Ġslo": 9258,
      "Ġmustard": 9259,
      "Ġshock": 9260,
      "Ġpole": 9261,
      "Ġtracks": 9262,
      "Ġuseless": 9263,
      "USH": 9264,
      "ÃľÃ£": 9265,
      "Ġresult": 9266,
      "text": 9267,
      "ĠShipoopi": 9268,
      "actually": 9269,
      "Ġterm": 9270,
      "otted": 9271,
      "Ġexchange": 9272,
      "Ġchoking": 9273,
      "Ġdecades": 9274,
      "icals": 9275,
      "Ġgays": 9276,
      "Ġhighly": 9277,
      "ĠÃĪÃ¦Ãı": 9278,
      "ĠClark": 9279,
      "AMM": 9280,
      "ĠÃ£Ãĩ": 9281,
      "Ġemail": 9282,
      "otsie": 9283,
      "ormous": 9284,
      "Ġvoices": 9285,
      "compl": 9286,
      "Ġgrabbed": 9287,
      "ungry": 9288,
      "Ġdreamed": 9289,
      "ĠChevy": 9290,
      "Ġcharming": 9291,
      "Ġstores": 9292,
      "Ġfilming": 9293,
      "Ġsmaller": 9294,
      "nothing": 9295,
      "Ġmemor": 9296,
      "ĠSwed": 9297,
      "phia": 9298,
      "Ġgeneral": 9299,
      "ĠMarch": 9300,
      "Ġ97": 9301,
      "ĠFrance": 9302,
      "Ġweekends": 9303,
      "Ġsymbol": 9304,
      "ĠUniversity": 9305,
      "Ġfloat": 9306,
      "Ġtreatment": 9307,
      "Ġgrandmother": 9308,
      "ÃĩÃĳÃŃ": 9309,
      "STRAIN": 9310,
      "STOMACH": 9311,
      "Ġvacuum": 9312,
      "Cheery": 9313,
      "Ġleads": 9314,
      "Ġpacked": 9315,
      "ĠAttention": 9316,
      "Ġturtle": 9317,
      "cano": 9318,
      "ĠElton": 9319,
      "ĠÃ¦Ã¡ÃŃ": 9320,
      "Ġimagination": 9321,
      "SNORING": 9322,
      "Ġcosts": 9323,
      "ĠÃ¥ÃĩÃŃ": 9324,
      "Ġproduction": 9325,
      "ĠLAUGHS": 9326,
      "ĠIndust": 9327,
      "Ġpractically": 9328,
      "Ġsteam": 9329,
      "Ġstepped": 9330,
      "Ġsoldiers": 9331,
      "affy": 9332,
      "Ġpilots": 9333,
      "ĠDouble": 9334,
      "ographer": 9335,
      "Ġdisguise": 9336,
      "Ġdisappeared": 9337,
      "ĠSTAR": 9338,
      "mont": 9339,
      "Speaking": 9340,
      "Ġnecklace": 9341,
      "someone": 9342,
      "Ġtyp": 9343,
      "VELY": 9344,
      "Ġcastle": 9345,
      "Ġhundreds": 9346,
      "Ġlabel": 9347,
      "GUY": 9348,
      "Ġwooden": 9349,
      "Ġcentury": 9350,
      "ĠGASPS": 9351,
      "Ġrequired": 9352,
      "Ġviewers": 9353,
      "Ġmentally": 9354,
      "Ġbikes": 9355,
      "Shouldn": 9356,
      "everything": 9357,
      "Ġnailed": 9358,
      "Ġengaged": 9359,
      "AWKING": 9360,
      "ĠMorgan": 9361,
      "ĠLouis": 9362,
      "Ġpeanuts": 9363,
      "ĠLaura": 9364,
      "OOD": 9365,
      "aisy": 9366,
      "etchup": 9367,
      "Ġinjury": 9368,
      "ĠCLICKING": 9369,
      "Road": 9370,
      "Ġnickel": 9371,
      "Ġsalesman": 9372,
      "ĠCalifornia": 9373,
      "Death": 9374,
      "Ġhelmet": 9375,
      "ĠSpeed": 9376,
      "Ġdescribe": 9377,
      "ĠAfrican": 9378,
      "ĠÃŀÃĳÃĩÃĳ": 9379,
      "Ġweapons": 9380,
      "ĠAnthony": 9381,
      "CHOKING": 9382,
      "Principal": 9383,
      "ĠBertram": 9384,
      "Ġvirginity": 9385,
      "Ġdentist": 9386,
      "Ġabandoned": 9387,
      "Ġsource": 9388,
      "Ġreckon": 9389,
      "Team": 9390,
      "ijuana": 9391,
      "ĠBLOWS": 9392,
      "Ġcritic": 9393,
      "Ġexplosion": 9394,
      "COMPUTER": 9395,
      "utenant": 9396,
      "Ġstretch": 9397,
      "Ġvolunteer": 9398,
      "Ġdebate": 9399,
      "ĠKennedy": 9400,
      "Ġcoupon": 9401,
      "Ġstabbed": 9402,
      "Ġvomit": 9403,
      "Ġsunglasses": 9404,
      "Definitely": 9405,
      "Ġpirate": 9406,
      "Ġlength": 9407,
      "ĠVirgin": 9408,
      "SUSPENSEFUL": 9409,
      "Ġvaluable": 9410,
      "ÃĩÃ°": 9411,
      "75": 9412,
      "BONNIE": 9413,
      "Cra": 9414,
      "Char": 9415,
      "Ding": 9416,
      "Dri": 9417,
      "ET": 9418,
      "FIRE": 9419,
      "Gonna": 9420,
      "Hard": 9421,
      "HIC": 9422,
      "ILING": 9423,
      "Jer": 9424,
      "Jim": 9425,
      "Kill": 9426,
      "Lou": 9427,
      "Mc": 9428,
      "Men": 9429,
      "Might": 9430,
      "NN": 9431,
      "Night": 9432,
      "OP": 9433,
      "PI": 9434,
      "Paul": 9435,
      "Sit": 9436,
[...]
